{"version": "1.0", "truncation": null, "padding": null, "added_tokens": [{"id": 0, "content": "[PAD]", "single_word": false, "lstrip": false, "rstrip": false, "normalized": false, "special": true}, {"id": 1, "content": "<s>", "single_word": false, "lstrip": false, "rstrip": false, "normalized": false, "special": true}, {"id": 2, "content": "</s>", "single_word": false, "lstrip": false, "rstrip": false, "normalized": false, "special": true}, {"id": 3, "content": "<unk>", "single_word": false, "lstrip": false, "rstrip": false, "normalized": false, "special": true}, {"id": 4, "content": "<mask>", "single_word": false, "lstrip": true, "rstrip": false, "normalized": false, "special": true}], "normalizer": {"type": "Sequence", "normalizers": [{"type": "NFKC"}]}, "pre_tokenizer": {"type": "Sequence", "pretokenizers": [{"type": "Split", "pattern": {"Regex": "(?i:'s|'t|'re|'ve|'m|'ll|'d)|[^\\r\\n\\p{L}\\p{N}]?\\p{L}+|\\p{N}{1,3}| ?[^\\s\\p{L}\\p{N}]+[\\r\\n]*|\\s*[\\r\\n]+|\\s+(?!\\S)|\\s+"}, "behavior": "Isolated", "invert": false}, {"type": "ByteLevel", "add_prefix_space": false, "trim_offsets": true, "use_regex": false}]}, "post_processor": {"type": "TemplateProcessing", "single": [{"SpecialToken": {"id": "<s>", "type_id": 0}}, {"Sequence": {"id": "A", "type_id": 0}}], "pair": [{"SpecialToken": {"id": "<s>", "type_id": 0}}, {"Sequence": {"id": "A", "type_id": 0}}, {"SpecialToken": {"id": "</s>", "type_id": 0}}, {"Sequence": {"id": "B", "type_id": 0}}], "special_tokens": {"</s>": {"id": "</s>", "ids": [2], "tokens": ["</s>"]}, "<s>": {"id": "<s>", "ids": [1], "tokens": ["<s>"]}}}, "decoder": {"type": "ByteLevel", "add_prefix_space": true, "trim_offsets": true, "use_regex": true}, "model": {"type": "BPE", "dropout": null, "unk_token": "<unk>", "continuing_subword_prefix": null, "end_of_word_suffix": null, "fuse_unk": false, "byte_fallback": true, "ignore_merges": false, "vocab": {"[PAD]": 0, "<s>": 1, "</s>": 2, "<unk>": 3, "<mask>": 4, "!": 5, "\"": 6, "#": 7, "$": 8, "%": 9, "&": 10, "'": 11, "(": 12, ")": 13, "*": 14, "+": 15, ",": 16, "-": 17, ".": 18, "/": 19, "0": 20, "1": 21, "2": 22, "3": 23, "4": 24, "5": 25, "6": 26, "7": 27, "8": 28, "9": 29, ":": 30, ";": 31, "<": 32, "=": 33, ">": 34, "?": 35, "@": 36, "A": 37, "B": 38, "C": 39, "D": 40, "E": 41, "F": 42, "G": 43, "H": 44, "I": 45, "J": 46, "K": 47, "L": 48, "M": 49, "N": 50, "O": 51, "P": 52, "Q": 53, "R": 54, "S": 55, "T": 56, "U": 57, "V": 58, "W": 59, "X": 60, "Y": 61, "Z": 62, "[": 63, "\\": 64, "]": 65, "^": 66, "_": 67, "`": 68, "a": 69, "b": 70, "c": 71, "d": 72, "e": 73, "f": 74, "g": 75, "h": 76, "i": 77, "j": 78, "k": 79, "l": 80, "m": 81, "n": 82, "o": 83, "p": 84, "q": 85, "r": 86, "s": 87, "t": 88, "u": 89, "v": 90, "w": 91, "x": 92, "y": 93, "z": 94, "{": 95, "|": 96, "}": 97, "~": 98, "¡": 99, "¢": 100, "£": 101, "¤": 102, "¥": 103, "¦": 104, "§": 105, "¨": 106, "©": 107, "ª": 108, "«": 109, "¬": 110, "®": 111, "¯": 112, "°": 113, "±": 114, "²": 115, "³": 116, "´": 117, "µ": 118, "¶": 119, "·": 120, "¸": 121, "¹": 122, "º": 123, "»": 124, "¼": 125, "½": 126, "¾": 127, "¿": 128, "À": 129, "Á": 130, "Â": 131, "Ã": 132, "Ä": 133, "Å": 134, "Æ": 135, "Ç": 136, "È": 137, "É": 138, "Ê": 139, "Ë": 140, "Ì": 141, "Í": 142, "Î": 143, "Ï": 144, "Ð": 145, "Ñ": 146, "Ò": 147, "Ó": 148, "Ô": 149, "Õ": 150, "Ö": 151, "×": 152, "Ø": 153, "Ù": 154, "Ú": 155, "Û": 156, "Ü": 157, "Ý": 158, "Þ": 159, "ß": 160, "à": 161, "á": 162, "â": 163, "ã": 164, "ä": 165, "å": 166, "æ": 167, "ç": 168, "è": 169, "é": 170, "ê": 171, "ë": 172, "ì": 173, "í": 174, "î": 175, "ï": 176, "ð": 177, "ñ": 178, "ò": 179, "ó": 180, "ô": 181, "õ": 182, "ö": 183, "÷": 184, "ø": 185, "ù": 186, "ú": 187, "û": 188, "ü": 189, "ý": 190, "þ": 191, "ÿ": 192, "Ā": 193, "ā": 194, "Ă": 195, "ă": 196, "Ą": 197, "ą": 198, "Ć": 199, "ć": 200, "Ĉ": 201, "ĉ": 202, "Ċ": 203, "ċ": 204, "Č": 205, "č": 206, "Ď": 207, "ď": 208, "Đ": 209, "đ": 210, "Ē": 211, "ē": 212, "Ĕ": 213, "ĕ": 214, "Ė": 215, "ė": 216, "Ę": 217, "ę": 218, "Ě": 219, "ě": 220, "Ĝ": 221, "ĝ": 222, "Ğ": 223, "ğ": 224, "Ġ": 225, "ġ": 226, "Ģ": 227, "ģ": 228, "Ĥ": 229, "ĥ": 230, "Ħ": 231, "ħ": 232, "Ĩ": 233, "ĩ": 234, "Ī": 235, "ī": 236, "Ĭ": 237, "ĭ": 238, "Į": 239, "į": 240, "İ": 241, "ı": 242, "Ĳ": 243, "ĳ": 244, "Ĵ": 245, "ĵ": 246, "Ķ": 247, "ķ": 248, "ĸ": 249, "Ĺ": 250, "ĺ": 251, "Ļ": 252, "ļ": 253, "Ľ": 254, "ľ": 255, "Ŀ": 256, "ŀ": 257, "Ł": 258, "ł": 259, "Ń": 260, "ar": 261, "er": 262, "in": 263, "Ã¼": 264, "an": 265, "ÅŁ": 266, "±n": 267, "Ä±n": 268, "en": 269, "il": 270, "Ġb": 271, "ÄŁ": 272, "ir": 273, "Ġd": 274, "Ġk": 275, "ma": 276, "Ã§": 277, "Ġs": 278, "Ġy": 279, "lar": 280, "Ġv": 281, "Ġt": 282, "el": 283, "Ġg": 284, "ek": 285, "Ã¶": 286, "al": 287, "Ġo": 288, "es": 289, "ak": 290, "et": 291, "un": 292, "Ġi": 293, "ay": 294, "em": 295, "Ġve": 296, "td": 297, "de": 298, "da": 299, "Ġh": 300, "la": 301, "ler": 302, "at": 303, "±l": 304, "Ä±l": 305, "on": 306, "><": 307, "li": 308, "ed": 309, "as": 310, "±r": 311, "Ä±r": 312, "or": 313, "iz": 314, "iy": 315, "ur": 316, "ul": 317, "Ã¼n": 318, "Ġol": 319, ".Ċ": 320, "Ġbir": 321, "le": 322, "im": 323, "Ä°": 324, "ĠB": 325, "ik": 326, "±k": 327, "Ä±k": 328, "iÅŁ": 329, "Ġm": 330, "ĠK": 331, "Ġa": 332, "Ã¼r": 333, "esi": 334, "ap": 335, "Ġda": 336, "Ġil": 337, "</": 338, "st": 339, "ĠA": 340, "ĠÃ§": 341, "it": 342, "20": 343, "aÅŁ": 344, "az": 345, "larÄ±n": 346, "am": 347, "ine": 348, "±ÅŁ": 349, "Ä±ÅŁ": 350, "ĠM": 351, "ĠgÃ¶": 352, "dan": 353, "ĠÃ¶": 354, "..": 355, "Ġp": 356, "inde": 357, "ey": 358, "ĠT": 359, "Ġde": 360, "±ÄŁ": 361, "Ä±ÄŁ": 362, "ab": 363, "uk": 364, "ĠD": 365, "±m": 366, "Ä±m": 367, "is": 368, "Ġf": 369, "ĠS": 370, "lan": 371, "Ã¼k": 372, "um": 373, "ah": 374, "ce": 375, "mas": 376, "Ġkar": 377, "âĢ": 378, "inin": 379, "Ġn": 380, "ya": 381, "di": 382, "Ġal": 383, "ĠiÃ§": 384, "Ã¼z": 385, "larÄ": 386, "larÄ±": 387, "Ä±nda": 388, "Ġu": 389, "ad": 390, "ilm": 391, "aÄŁ": 392, "ĠH": 393, "tr": 394, "Ġma": 395, "ĠE": 396, "den": 397, "ol": 398, "±z": 399, "Ä±z": 400, "ti": 401, "Ġver": 402, "Ġyap": 403, "Ġar": 404, "ini": 405, "tir": 406, "Ġtar": 407, "Ġger": 408, "ĠgÃ¶r": 409, "ac": 410, "Ã¼m": 411, "Ġile": 412, "Ġr": 413, "ÄŁi": 414, "ĠÅŁ": 415, "eler": 416, "201": 417, "ev": 418, "du": 419, "ĠY": 420, "mak": 421, "lÄ": 422, "lÄ±": 423, "af": 424, "Ã¼l": 425, "Ġbu": 426, "ĠÄ°": 427, "ok": 428, "Ġed": 429, "Ġin": 430, "leri": 431, "Ġan": 432, "Ä±na": 433, "Ġdav": 434, "iler": 435, "Ġkarar": 436, "dir": 437, "Ġ(": 438, "ĠG": 439, "ĠC": 440, "uÅŁ": 441, "ĠiÃ§in": 442, "ĠÃ": 443, "Ä±nÄ±n": 444, "larak": 445, "lik": 446, "masÄ": 447, "masÄ±": 448, "len": 449, "us": 450, "Ä±lÄ": 451, "Ä±lÄ±": 452, "ĠiÅŁ": 453, "eb": 454, "Ġson": 455, "ih": 456, "Ã¼ÅŁ": 457, "Ã¶n": 458, "Ġuy": 459, "ez": 460, "Ä±ÄŁÄ": 461, "Ä±ÄŁÄ±": 462, "Ġet": 463, "±s": 464, "Ä±s": 465, "ec": 466, "Ġsay": 467, "Ä±nÄ": 468, "Ä±nÄ±": 469, "></": 470, "âĢĻ": 471, "av": 472, "duÄŁ": 473, "Ġz": 474, "Ä±ndan": 475, "tÄ±r": 476, "ut": 477, "os": 478, "Ġolarak": 479, "ĠbaÅŁ": 480, "dÄ±r": 481, "Ġc": 482, "Ġbul": 483, "ilir": 484, "ĠdeÄŁ": 485, "Ġtem": 486, "eÃ§": 487, "ĠÃ¶n": 488, "oÄŁ": 489, "Ġyer": 490, "ĠP": 491, "Ġay": 492, "te": 493, "ilen": 494, "lem": 495, "Ġkon": 496, "Ġist": 497, "unu": 498, "aki": 499, "ta": 500, "ĠO": 501, "'n": 502, "Ġgerek": 503, "ro": 504, "ic": 505, "laÅŁ": 506, "yor": 507, "Ä±lan": 508, "ili": 509, "kem": 510, "iyle": 511, "Ġbel": 512, "eÅŁ": 513, "Ġgel": 514, "ĠsÃ¼r": 515, "...": 516, "19": 517, "ĠolduÄŁ": 518, "Ġmad": 519, "Ġtarih": 520, "mÄ±ÅŁ": 521, "eden": 522, "anÄ±n": 523, "Ġbulun": 524, "10": 525, "lÄ±k": 526, "mek": 527, "Ġor": 528, "yiz": 529, "asÄ": 530, "asÄ±": 531, "me": 532, "alÄ": 533, "alÄ±": 534, "ĠaÃ§": 535, "iye": 536, "op": 537, "Åŀ": 538, "iÅŁtir": 539, "ĠĠ": 540, "ca": 541, "Ġolan": 542, "om": 543, "lama": 544, "Ġis": 545, "lerin": 546, "ĠsayÄ±lÄ±": 547, "ib": 548, "Ġen": 549, "ĠhÃ¼k": 550, "th": 551, "ĠF": 552, "ra": 553, "Ġtemyiz": 554, "Ġbil": 555, "air": 556, "dÄ": 557, "dÄ±": 558, "ĠgÃ¼n": 559, "iyor": 560, "AR": 561, "ullan": 562, "anÄ": 563, "anÄ±": 564, "lu": 565, "eki": 566, "ece": 567, "Ġuyg": 568, "eÄŁ": 569, "Ġtaraf": 570, "iÄŁ": 571, "cak": 572, "unun": 573, "ĠÃ¼z": 574, "uz": 575, "Ġmadd": 576, "ĠDair": 577, "cel": 578, "Ġyar": 579, "Ġkullan": 580, "ĠÃ¼zer": 581, "ĠyÃ¶n": 582, "ip": 583, "ildi": 584, "cÄ": 585, "cÄ±": 586, "leÅŁ": 587, "tan": 588, "ĠBu": 589, "Ã¶r": 590, "ama": 591, "iniz": 592, "daki": 593, "ĠR": 594, "ukuk": 595, "alÄ±ÅŁ": 596, "Ġkur": 597, "Ġdah": 598, "Ã¼y": 599, "yon": 600, "he": 601, "ekil": 602, "Ġhak": 603, "up": 604, "Ġ...": 605, "inden": 606, "'d": 607, "ĠN": 608, "Ġbelir": 609, "ĠgÃ¶re": 610, "ahkem": 611, "dÄ±ÄŁÄ±": 612, "Ãľ": 613, "man": 614, "tur": 615, "ter": 616, "Ġkal": 617, "unda": 618, "Ã¢": 619, "Ġ\"": 620, "ĠÃ§alÄ±ÅŁ": 621, "00": 622, "Ã¼rk": 623, "dÄ±ÄŁ": 624, "ĠdÃ¼ÅŁ": 625, "kin": 626, "uÃ§": 627, "esine": 628, "tÄ": 629, ".,": 630, "Ġoy": 631, "tÄ±": 632, "ark": 633, "Ġneden": 634, "Ã¶z": 635, "ibi": 636, "eni": 637, "ĠgeÃ§": 638, "ep": 639, "Ã¶l": 640, "yla": 641, "200": 642, "ede": 643, "Ġdaha": 644, "esinde": 645, "iyet": 646, "Ġolma": 647, "Ġkad": 648, "Ġdur": 649, "ĠdÃ¼z": 650, "larÄ±nÄ±n": 651, "ĠÃ§ok": 652, "ĠÃĩ": 653, "eli": 654, "ist": 655, "Ġel": 656, "18": 657, "lÃ¼": 658, "asÄ±nda": 659, "Ġad": 660, "ĠMahkem": 661, "id": 662, "ÄŁr": 663, "edir": 664, "isi": 665, "Ġkay": 666, "ki": 667, "ĠtarafÄ±ndan": 668, "ĠâĢ": 669, "Ã¶y": 670, "Ġher": 671, "ĠDairesi": 672, "ĠÃ¶z": 673, "esinin": 674, "ĠyÄ±l": 675, "ecek": 676, "liÄŁ": 677, "Ġpar": 678, "MA": 679, "let": 680, "±t": 681, "Ä±t": 682, "men": 683, "ĠKan": 684, "lara": 685, "ĠkarÅŁ": 686, "ada": 687, "eye": 688, "202": 689, "ĠV": 690, "Ã¼t": 691, "ye": 692, "aya": 693, "Ġyaz": 694, "arÄ": 695, "arÄ±": 696, "Ġgibi": 697, "12": 698, "ĠÃĸ": 699, "end": 700, "Ġincel": 701, "Ġsan": 702, "ĠÃ¼": 703, "aman": 704, "Ġvar": 705, "ers": 706, "ĠAn": 707, "ĠÃ§Ä±k": 708, "ĠsaÄŁ": 709, "aÃ§": 710, "ci": 711, "Ġek": 712, "ans": 713, "ken": 714, "eri": 715, "Ġbo": 716, "ĠHukuk": 717, "Ġthe": 718, "ilmesi": 719, "gi": 720, "una": 721, "Ġon": 722, "Ġhal": 723, "arak": 724, "Ġise": 725, "edi": 726, "lay": 727, "ĠyaÅŁ": 728, "ĠolduÄŁu": 729, "eza": 730, "eh": 731, "Ġsonra": 732, "ot": 733, "deki": 734, "bir": 735, "adÄ±r": 736, "makt": 737, "met": 738, "tedir": 739, "Ġdos": 740, "if": 741, "Ġtop": 742, "imiz": 743, "ĠalÄ±n": 744, "Ġmah": 745, "cu": 746, "uÅŁtur": 747, "mesi": 748, "ĠCeza": 749, "ten": 750, "ĠL": 751, "ĠTÃ¼rk": 752, "dÃ¼": 753, "11": 754, "larÄ±nÄ": 755, "larÄ±nÄ±": 756, "acÄ": 757, "sel": 758, "acÄ±": 759, "eleri": 760, "ĠaÃ§Ä±k": 761, "od": 762, "ĠdoÄŁ": 763, "maktadÄ±r": 764, "erek": 765, "Ġes": 766, "lam": 767, "Ġpro": 768, "Ġsor": 769, "Ġkat": 770, "Ġkap": 771, "14": 772, "larda": 773, "etim": 774, "ef": 775, "ĠiliÅŁ": 776, "Ġzaman": 777, "acak": 778, "Ġveya": 779, "aÄŁÄ": 780, "aÄŁÄ±": 781, "Ġdev": 782, "NA": 783, "ĠI": 784, "15": 785, "ĠÅŀ": 786, "ĠU": 787, "Ġtes": 788, "Ġhar": 789, "ni": 790, "Ġkab": 791, "san": 792, "ster": 793, "Ãĩ": 794, "miÅŁ": 795, "ub": 796, "Ġsah": 797, "sa": 798, "Ġof": 799, "Ġtek": 800, "Ã§ek": 801, "âĢĿ": 802, "Ġ:": 803, "tal": 804, "elik": 805, "Ġola": 806, "ĠhÃ¼kÃ¼m": 807, "maz": 808, "ĠmÃ¼": 809, ">Ċ": 810, "Ġce": 811, "Ġak": 812, "ĠdeÄŁer": 813, "ĠÅŁekil": 814, "ulan": 815, "ĠgÃ¼": 816, "13": 817, "ĠÃ¶zel": 818, "ĠdÃ¼ÅŁÃ¼n": 819, "Ġkadar": 820, "Ġhakk": 821, "ĠyÃ¼k": 822, "hat": 823, "ĠhÃ¼km": 824, "ĠdavalÄ±": 825, "ĠgÃ¶ster": 826, "ES": 827, "Ġ-": 828, "ĠÃ¼r": 829, "Ä±mÄ±z": 830, "Ä±sÄ": 831, "Ä±sÄ±": 832, "eÄŁi": 833, "lere": 834, "ĠyapÄ±lan": 835, "ER": 836, "masÄ±na": 837, "ayÄ": 838, "ayÄ±": 839, "Ã¼yÃ¼k": 840, "ĠBaÅŁ": 841, "larÄ±na": 842, "enin": 843, "Ġedilm": 844, "ĠbaÄŁ": 845, "ĠdÃ¶n": 846, "ĠsuÃ§": 847, "Ġalan": 848, "esin": 849, "Ġdurum": 850, "ĠyapÄ±l": 851, "uy": 852, "±yor": 853, "Ä±yor": 854, "Ġyeni": 855, "ĠâĢľ": 856, "Ġilg": 857, "ing": 858, "iÃ§": 859, "ĠkiÅŁ": 860, "ĠÅŁekilde": 861, "Ġw": 862, "Ġden": 863, "Ġgir": 864, "ge": 865, "TA": 866, "ĠtaÅŁ": 867, "ĠÃ¶ÄŁr": 868, "lerinin": 869, "Ġat": 870, "Ġkabul": 871, "maya": 872, "....": 873, "Ġgen": 874, "art": 875, "mÄ±ÅŁtÄ±r": 876, "ĠiÃ§er": 877, "ĠgÃ¶rÃ¼l": 878, "Ġyol": 879, "ade": 880, "##": 881, "Ä±nÄ±z": 882, "ĠbÃ¶l": 883, "lerini": 884, "Ġas": 885, "eme": 886, "EM": 887, "dÃ¼r": 888, "Ã¼nde": 889, "ĠdÃ¼zen": 890, "ret": 891, "iÄŁer": 892, "Ġred": 893, "imi": 894, "ley": 895, "ĠsÃ¶z": 896, "Ġuygun": 897, "ayan": 898, "Ġverilm": 899, "usu": 900, "ig": 901, "ĠaÅŁ": 902, "Ġyan": 903, "arÄ±n": 904, "siz": 905, "ĠgerÃ§ek": 906, "Ġyet": 907, "erk": 908, "oc": 909, ":Ċ": 910, "ESÄ°": 911, "17": 912, "**": 913, "Ġverildi": 914, "ĠÃ¶nem": 915, "\"Ċ": 916, "Ġev": 917, "tik": 918, "16": 919, "Ġmaddesi": 920, ",Ċ": 921, "ram": 922, "23": 923, "Ġtak": 924, "Ġfark": 925, "ĠkarÅŁÄ": 926, "ĠkarÅŁÄ±": 927, "nÄ": 928, "est": 929, "Ġkan": 930, "abilir": 931, "ĠkÄ±s": 932, "ĠMahkemesi": 933, "ÄŁini": 934, "nÄ±": 935, "Ġama": 936, "gÄ": 937, "der": 938, "gÄ±": 939, "lendir": 940, "may": 941, "Ġort": 942, "aat": 943, "lanan": 944, "SI": 945, "uh": 946, "Ġyak": 947, "Ġbak": 948, "Ġok": 949, "Ġuz": 950, "Ãĸ": 951, "ĠÃľ": 952, "ent": 953, "Ã¼ne": 954, "mektedir": 955, "yi": 956, "ru": 957, "ĠgÃ¶z": 958, "Ġtut": 959, "rÄ": 960, "Ä±ndaki": 961, "ara": 962, "rÄ±": 963, "Ġko": 964, "re": 965, "Ä±mÄ": 966, "Ä±mÄ±": 967, "izmet": 968, "liye": 969, "Ġdava": 970, "ĠdeÄŁiÅŁ": 971, "larÄ±nda": 972, "Ġand": 973, "Ġih": 974, "Ġalt": 975, "Ġdosya": 976, "ĠMet": 977, "Ġkaz": 978, "liÄŁi": 979, "kan": 980, "dur": 981, "'nÄ±n": 982, "endi": 983, "bar": 984, "ĠiÅŁlem": 985, "Ã¼s": 986, "Ä±lÄ±k": 987, "asyon": 988, "ĠarasÄ±nda": 989, "lat": 990, "ĠiliÅŁkin": 991, "Ġverilen": 992, "ĠiÃ§inde": 993, "ebilir": 994, "Ġilk": 995, "ĠKur": 996, "siniz": 997, "ĠyÃ¼z": 998, "199": 999, "25": 1000, "ĠĠĠ": 1001, "aret": 1002, "Ġilgili": 1003, "ĠYar": 1004, "undan": 1005, "tar": 1006, "Ġmahkem": 1007, "ĠAr": 1008, "27": 1009, "ici": 1010, "Ġkend": 1011, "ven": 1012, "Ġdil": 1013, "sÄ±z": 1014, "Ġne": 1015, "ĠbÃ¼yÃ¼k": 1016, "30": 1017, "Ġhay": 1018, "se": 1019, "Ġtarihinde": 1020, "ĠtÃ¼m": 1021, "etir": 1022, "Ä°Ã§": 1023, "Ġfaz": 1024, "'nin": 1025, "ĠhÃ¼kmÃ¼n": 1026, "atÄ": 1027, "atÄ±": 1028, "Ġ\\": 1029, "ka": 1030, "ĠdiÄŁer": 1031, "ileri": 1032, "ĠBir": 1033, "tiraz": 1034, "âĢĻn": 1035, "ion": 1036, "ĠeÄŁ": 1037, "ĠÃ§alÄ±ÅŁma": 1038, "lÄ±ÄŁ": 1039, "esini": 1040, "Ã®": 1041, "oz": 1042, "ran": 1043, "tihat": 1044, "ĠhakkÄ±nda": 1045, "Ġben": 1046, "olo": 1047, "ĠdeÄŁil": 1048, "Ġetk": 1049, "lÄ±ÄŁÄ±": 1050, "ĠsÄ±r": 1051, "Ġ<": 1052, "ĠdavacÄ±": 1053, "Ġbelirt": 1054, "ulu": 1055, "han": 1056, "ĠseÃ§": 1057, "Ġgetir": 1058, "bilir": 1059, "Ġitiraz": 1060, "lardan": 1061, "Ġcez": 1062, "ĠMetni": 1063, "±la": 1064, "Ä±la": 1065, "ĠolduÄŁunu": 1066, "Ä°Ã§tihat": 1067, "Ġhizmet": 1068, "leÅŁtir": 1069, "Ġid": 1070, "sek": 1071, "lenen": 1072, "lo": 1073, "\"Ä°Ã§tihat": 1074, "GI": 1075, "Ġistem": 1076, "aber": 1077, "Ġder": 1078, "Ġhem": 1079, "ĠaynÄ±": 1080, "TAY": 1081, "YAR": 1082, "HK": 1083, "Ġhas": 1084, "Ġsev": 1085, "mey": 1086, "ĠÃ¶nemli": 1087, "Ġyas": 1088, "ĠAl": 1089, "raf": 1090, "Ġfazla": 1091, "Ġaz": 1092, "Ġbirlik": 1093, "Ġtal": 1094, "lerine": 1095, "Ġsahip": 1096, "ince": 1097, "Ã¼ldÃ¼": 1098, "istem": 1099, "atÄ±r": 1100, "Ġser": 1101, "miÅŁtir": 1102, "ĠKar": 1103, "24": 1104, "Ġsonu": 1105, "ĠdÄ±ÅŁ": 1106, "YARGI": 1107, "stan": 1108, "ĠÃ§ek": 1109, "tÃ¼r": 1110, "ĠTÃ¼rkiye": 1111, "iv": 1112, "YARGITAY": 1113, "cret": 1114, "diÄŁi": 1115, "Ġolmak": 1116, "ĠgereÄŁi": 1117, "dÄ±m": 1118, "dÄ±k": 1119, "arÄ±nca": 1120, "ĠAy": 1121, "Ã§e": 1122, "Ġyay": 1123, "Ġli": 1124, "ĠuyarÄ±nca": 1125, "Ġredd": 1126, "HKEM": 1127, "lerde": 1128, "Ġboz": 1129, "22": 1130, "Ġart": 1131, "Ġdol": 1132, "Ġyerinde": 1133, "dÄ±ÄŁÄ±nÄ±": 1134, "HKEMESÄ°": 1135, "Ġvek": 1136, "186": 1137, "Ġbulunan": 1138, "Ġiz": 1139, "ilik": 1140, "ĠÃ¶l": 1141, "Ġbilg": 1142, "Ġseb": 1143, "Ġkonu": 1144, "ket": 1145, "Ġyok": 1146, "ĠanlaÅŁ": 1147, "±p": 1148, "duk": 1149, "Ä±p": 1150, "gÄ±t": 1151, "ĠÃ¶r": 1152, "ilmek": 1153, "ĠÃ¼zerine": 1154, "ver": 1155, "ĠTL": 1156, "iyat": 1157, "Ä±lmasÄ±": 1158, "likle": 1159, "ize": 1160, "Ġsit": 1161, "ĠÃ¶ÄŁren": 1162, "azÄ": 1163, "azÄ±": 1164, "gÄ±tay": 1165, "Ġbirlikte": 1166, "itim": 1167, "ĠoluÅŁ": 1168, ".ĊĊ": 1169, "oli": 1170, "ĠZ": 1171, "asÄ±nÄ±n": 1172, "Ã¼p": 1173, "ĠsanÄ±k": 1174, "ĠsÃ¶y": 1175, "Ã§a": 1176, "Ġiyi": 1177, "Ġsat": 1178, "ĠKanun": 1179, "Ġ*": 1180, "ĠgÃ¶rev": 1181, "vur": 1182, "lÃ¼ÄŁ": 1183, "Ġim": 1184, "por": 1185, "Ġiti": 1186, "bil": 1187, "min": 1188, "ĠgÃ¶rÃ¼ÅŁ": 1189, "Ġkazan": 1190, "Ġya": 1191, "ĠyÃ¼r": 1192, "Ġeden": 1193, "MASI": 1194, "Ġetti": 1195, "tÄ±rma": 1196, "siy": 1197, "Ġuygu": 1198, "ĠÃ¼zere": 1199, "Ġdevam": 1200, "Ġnit": 1201, "Ġuygulan": 1202, "Ġincelen": 1203, "ilerin": 1204, "liÄŁiyle": 1205, "bet": 1206, "Ġter": 1207, "Ġkaps": 1208, "ĠgÃ¶n": 1209, "Ġtan": 1210, "lerle": 1211, "yal": 1212, "tu": 1213, "ĠÃ¼cret": 1214, "oloj": 1215, "Ġinsan": 1216, "29": 1217, "21": 1218, "ediÄŁ": 1219, "bul": 1220, "Bu": 1221, "izi": 1222, "Ġzor": 1223, "ĠÃ¼l": 1224, "Ġkam": 1225, "Ġiki": 1226, "Ġ%": 1227, "'un": 1228, "si": 1229, "Ġ,": 1230, "ocuk": 1231, "alan": 1232, "28": 1233, "pit": 1234, "±cÄ±": 1235, "Ä±cÄ±": 1236, "MASINA": 1237, "ĠolmasÄ±": 1238, "dik": 1239, "sul": 1240, "yan": 1241, "rup": 1242, "Ä°N": 1243, "Ġsistem": 1244, "Ġkor": 1245, "'nun": 1246, "ĠYargÄ±tay": 1247, "50": 1248, "MAHKEMESÄ°": 1249, "Ġif": 1250, "Ġsav": 1251, "ĠÄ°n": 1252, "Ġhaz": 1253, "Ã¼tÃ¼n": 1254, "emek": 1255, "ĠÄ°ÅŁ": 1256, "ĠdoÄŁru": 1257, ";Ċ": 1258, "Ġedilen": 1259, "Ġdik": 1260, "tÃ¶r": 1261, "ĠÄ°l": 1262, "),": 1263, "26": 1264, "ĠÃ¶nce": 1265, "01": 1266, "ĠoluÅŁtur": 1267, "lÃ¼k": 1268, "ĠbaÅŁvur": 1269, "duÄŁu": 1270, "cÃ¼": 1271, "ĠtÃ¼r": 1272, "Ġoybir": 1273, "Ġtespit": 1274, "Dav": 1275, "indeki": 1276, "Ġitibar": 1277, "ĠEr": 1278, "ate": 1279, "Ġto": 1280, "ĠdavanÄ±n": 1281, "tÄ±ÄŁÄ±": 1282, "larla": 1283, "iÅŁim": 1284, "ĠgÃ¼ven": 1285, "Ġbas": 1286, "Ġtah": 1287, "?Ċ": 1288, "ĠtaÅŁÄ±n": 1289, "ĠgÃ¶nder": 1290, "Ġfor": 1291, "irket": 1292, "ĠGen": 1293, "Ġolup": 1294, "Ġki": 1295, "Ġpara": 1296, "Ġkapsam": 1297, "apor": 1298, "Ġsun": 1299, "Ġgid": 1300, "gu": 1301, "Ġmil": 1302, "ĠW": 1303, "ĠØ": 1304, "lerden": 1305, "Ġvekili": 1306, "Ġoyun": 1307, "ĠdeÄŁerlendir": 1308, "ĠyargÄ±": 1309, "Ä±ÄŁÄ±n": 1310, "stanbul": 1311, "Ġkol": 1312, "ation": 1313, "masÄ±nÄ±": 1314, ")Ċ": 1315, "ĠÃĸz": 1316, "Ġe": 1317, "ĠdÃ¼ÅŁÃ¼nÃ¼ldÃ¼": 1318, "iyas": 1319, "Ġhukuk": 1320, "ĠJ": 1321, "Ġfa": 1322, "ĠfarklÄ±": 1323, "ĠdÃ¶nem": 1324, "ĠaÄŁ": 1325, "Ġduy": 1326, "ĠAs": 1327, "AN": 1328, "ĠÅŁey": 1329, "Ã¼nÃ¼": 1330, "abil": 1331, "ĠkararÄ": 1332, "ĠkararÄ±": 1333, "ÄŁu": 1334, "Ġhes": 1335, "ĠeÅŁ": 1336, "erkez": 1337, "Ġdel": 1338, "pan": 1339, "ĠAd": 1340, "Ġkonusu": 1341, "Ġbah": 1342, "gram": 1343, "mi": 1344, "nak": 1345, "ĠyazÄ±lÄ±": 1346, "kanÄ±": 1347, "luk": 1348, "Ġkr": 1349, "Ġdayan": 1350, "Ä°L": 1351, "ĠyÃ¼ksek": 1352, "ĠhazÄ±r": 1353, "53": 1354, "ch": 1355, "40": 1356, "Ġdosy": 1357, "Ã¶yle": 1358, "Ġkurul": 1359, "Ġbulunma": 1360, "Ġdo": 1361, "br": 1362, "Ã¼nden": 1363, "Ġesas": 1364, "eti": 1365, "mem": 1366, "ĠdÃ¼n": 1367, "leme": 1368, "Ġmes": 1369, "Ġgenel": 1370, "asÄ±l": 1371, "for": 1372, "ukarÄ±": 1373, "Ġdair": 1374, "malÄ±": 1375, "Ġgelen": 1376, "tem": 1377, "lerinde": 1378, "sik": 1379, "ĠulaÅŁ": 1380, "usunda": 1381, "Ġtama": 1382, "Ġnedeniyle": 1383, "rak": 1384, "ĠBel": 1385, "hur": 1386, "acaÄŁ": 1387, "larÄ±ndan": 1388, "tion": 1389, "ĠkararÄ±n": 1390, "Ġbin": 1391, "ow": 1392, "eceÄŁ": 1393, "Ġede": 1394, "Ġrapor": 1395, "Ġdikk": 1396, "meye": 1397, "tÃ¼": 1398, "Ġer": 1399, "muÅŁ": 1400, "Ä±nÄ±r": 1401, "elerin": 1402, "ĠgerekÃ§": 1403, "uv": 1404, "ĠtaÅŁÄ±nmaz": 1405, "sal": 1406, "Ġbek": 1407, "Ġtarihli": 1408, "Ã¼zel": 1409, "Ġark": 1410, "siyon": 1411, "ĠfÄ±k": 1412, "ĠÃ¼rÃ¼n": 1413, "ĠoybirliÄŁiyle": 1414, "ĠMÃ¼": 1415, "Ġtab": 1416, "sun": 1417, "ĠbÃ¶lÃ¼m": 1418, "isinde": 1419, "ĠEs": 1420, "res": 1421, "ide": 1422, "EN": 1423, "ĠkonuÅŁ": 1424, "02": 1425, "ĠyatÄ±r": 1426, "Ġkesin": 1427, "Ġvekil": 1428, "ĠEn": 1429, "Ġmik": 1430, "Ġ'": 1431, "dem": 1432, "Ġbelg": 1433, "able": 1434, "ika": 1435, "Ġusul": 1436, "Ġun": 1437, "Ġboy": 1438, "'Ä±n": 1439, "umhur": 1440, "05": 1441, "ĠÃ§ev": 1442, "Ġolur": 1443, "ort": 1444, "ehir": 1445, "ilerek": 1446, "rÄ±ca": 1447, "ĠBÃ¶l": 1448, "ĠÅŁirket": 1449, "onom": 1450, "Ä±rak": 1451, "Ġdelil": 1452, "ĠÃ¼st": 1453, "ĠsonuÃ§": 1454, "asar": 1455, "'in": 1456, "asÄ±ndaki": 1457, "adece": 1458, "ĠÃ¼lk": 1459, "osyal": 1460, "ĠkÃ¶": 1461, "eyi": 1462, "kÄ±r": 1463, "ĠBak": 1464, "uyor": 1465, "ĠÃ§ocuk": 1466, "ĠÄ°stanbul": 1467, "Ġkim": 1468, "Ġl": 1469, ">-": 1470, "ĠbÃ¼tÃ¼n": 1471, "ĠhiÃ§": 1472, "Ġait": 1473, "ediÄŁi": 1474, "ĠdeÄŁiÅŁik": 1475, "Ġdilek": 1476, "Ġem": 1477, "ĠAk": 1478, "ĠÃ§Ä±kar": 1479, "to": 1480, "Ġsu": 1481, "Ġmod": 1482, "Ġsaat": 1483, "ri": 1484, "Ġ$": 1485, "ĠÃ¼zerinde": 1486, "Ġsebep": 1487, "UL": 1488, "Ġoran": 1489, "tÄ±k": 1490, "Ġbelirlen": 1491, "ĠsÄ±nÄ±r": 1492, "ari": 1493, "mal": 1494, "gan": 1495, "ĠyÃ¶nelik": 1496, "Ġhat": 1497, "elt": 1498, "03": 1499, "eket": 1500, "eceÄŁi": 1501, "Ġtekn": 1502, "Ġban": 1503, "06": 1504, "muÅŁtur": 1505, "unuz": 1506, "estek": 1507, "...Ċ": 1508, "Ġhayat": 1509, "ĠaraÅŁ": 1510, "ĠOr": 1511, "Ġolay": 1512, "Äŀ": 1513, "Ġbor": 1514, "Ġte": 1515, "||": 1516, "ĠÃ¼Ã§": 1517, "Ġolacak": 1518, "ĠbÄ±rak": 1519, "ĠAv": 1520, "Ġkendi": 1521, "100": 1522, "Ġhav": 1523, "oy": 1524, "Ġmaddesinin": 1525, "ĠgereÄŁ": 1526, "ĠGenel": 1527, "Ġmev": 1528, "alÄ±k": 1529, "198": 1530, "MK": 1531, "Ġik": 1532, "Ġanlam": 1533, "ĠfÄ±kr": 1534, "Ġolduk": 1535, "09": 1536, "olu": 1537, "mayÄ": 1538, "mayÄ±": 1539, "ĠÅŁek": 1540, "04": 1541, "Ġgerekti": 1542, "ĠÃ§Ã¶z": 1543, "ĠanlaÅŁÄ±l": 1544, "ukarÄ±da": 1545, "sil": 1546, "ĠbaÅŁla": 1547, "Ġsiz": 1548, "ĠHak": 1549, "Ġuygulama": 1550, "Ġancak": 1551, "ĠKanunun": 1552, "ĠeÄŁitim": 1553, "Ġgerektir": 1554, "........": 1555, "kÃ¼": 1556, "EL": 1557, "An": 1558, "Ġtakdir": 1559, "Ġmet": 1560, "ĠsÄ": 1561, "Ä±zÄ": 1562, "Ä±zÄ±": 1563, "ĠgÃ¶rÃ¼n": 1564, "eniz": 1565, "ĠsÄ±": 1566, "uma": 1567, "Ġpay": 1568, "ilmiÅŁ": 1569, "ĠÃ¶nc": 1570, "tern": 1571, "ĠPro": 1572, "adaÅŁ": 1573, "Ġortaya": 1574, "sÄ": 1575, "Ġhaf": 1576, "ildiÄŁi": 1577, "36": 1578, "Ġip": 1579, "ĠbÃ¶lg": 1580, "Ġmal": 1581, "sub": 1582, "Ġdin": 1583, "ĠsÃ¶zleÅŁ": 1584, "sÄ±": 1585, "tÄ±ÄŁ": 1586, "eyen": 1587, "tiy": 1588, "Ġzar": 1589, "ĠSan": 1590, "gÃ¼n": 1591, "tif": 1592, "acÄ±nÄ±n": 1593, "ĠgereÄŁince": 1594, "Ġedil": 1595, "ov": 1596, "inci": 1597, "Ġreddine": 1598, "Ġyerine": 1599, "erli": 1600, "table": 1601, "07": 1602, ").Ċ": 1603, "Ġgerekir": 1604, "kÄ": 1605, "orum": 1606, "dar": 1607, "ĠsÃ¼resi": 1608, "ĠnasÄ±l": 1609, "asÄ±na": 1610, "Ġsadece": 1611, "manÄ±n": 1612, "Ġres": 1613, ").": 1614, "Ġtalep": 1615, "lerinden": 1616, "ON": 1617, "kÄ±": 1618, "ĠsÄ±k": 1619, "kÃ¼n": 1620, "ĠÃ¼y": 1621, "Ġiddi": 1622, "landÄ±r": 1623, "ĠaykÄ±r": 1624, "ĠyardÄ±m": 1625, "masÄ±nÄ±n": 1626, "ET": 1627, "larÄ±mÄ±z": 1628, "Ġkaynak": 1629, "Ġtaz": 1630, "mÃ¼ÅŁ": 1631, "meler": 1632, "Ã§i": 1633, "Ġteb": 1634, "lah": 1635, "yÄ": 1636, "Ġmuh": 1637, "ĠgÃ¼nÃ¼nde": 1638, "ĠbazÄ±": 1639, "fa": 1640, "ĠCumhur": 1641, "Ġdestek": 1642, "van": 1643, "Ġbiz": 1644, "ĠKon": 1645, "ĠĠĠĠĠ": 1646, "trol": 1647, "yÄ±": 1648, "ĠarasÄ±ndaki": 1649, "Ã¼Ã§": 1650, "ĠgerÃ§ekleÅŁtir": 1651, "Ġsal": 1652, "Ġbey": 1653, "gel": 1654, "azet": 1655, "Ã¼nÃ¼n": 1656, "UÃĩ": 1657, "ersit": 1658, "span": 1659, "ĠBil": 1660, "Ġisten": 1661, "eÅŁit": 1662, "all": 1663, "ÙĦ": 1664, "000": 1665, "Ġkamu": 1666, "Ġhalinde": 1667, "Ġtaki": 1668, "Ġtel": 1669, "ĠDer": 1670, "lak": 1671, "37": 1672, "esiyle": 1673, "yet": 1674, "abilirsiniz": 1675, "layan": 1676, "ĠdilekÃ§": 1677, "EK": 1678, "35": 1679, "ĠYas": 1680, "'t": 1681, "ĠgeliÅŁ": 1682, "Ġpoli": 1683, "lum": 1684, "Ġcan": 1685, "Ġ...'": 1686, "abet": 1687, "NAN": 1688, "ĠmÃ¼m": 1689, "Ø§": 1690, "Ġbur": 1691, "ĠKanunu": 1692, "Ġfiyat": 1693, "ne": 1694, "Ġediyor": 1695, "emiz": 1696, "ĠhÄ±z": 1697, "ĠdÃ¼zelt": 1698, "ĠgÃ¼Ã§": 1699, "Ġnok": 1700, "ĠyargÄ±lama": 1701, "Ġplan": 1702, "Ġelde": 1703, "Ġsonuc": 1704, "Ġman": 1705, "enk": 1706, "ĠbaÅŁka": 1707, "nam": 1708, "dav": 1709, "Ġtamam": 1710, "nek": 1711, "Ġmak": 1712, "Ġnum": 1713, "Ġsek": 1714, "Ġnedenle": 1715, "ĠmÃ¼mkÃ¼n": 1716, "ĠEÄŁ": 1717, "ĠteÅŁ": 1718, "oÄŁlu": 1719, "fi": 1720, "etic": 1721, "ahat": 1722, "Ã¼yor": 1723, "ĠyÃ¼rÃ¼r": 1724, "ĠdolayÄ±": 1725, "Ã»": 1726, "=\"": 1727, "ĠyapÄ": 1728, "ĠyapÄ±": 1729, "AL": 1730, "ARAR": 1731, "Ġsonr": 1732, "Ġhareket": 1733, "aba": 1734, "ĠgÃ¼zel": 1735, "anÄ±t": 1736, "qu": 1737, "ĠkatÄ±l": 1738, "kara": 1739, "Ġbilgi": 1740, "ĠiliÅŁk": 1741, "Ġyeniden": 1742, "ĠkullanÄ±l": 1743, "Ġedilmek": 1744, "Ġhesap": 1745, "dÄ±ÄŁÄ±ndan": 1746, "Ġbit": 1747, "ĠaÅŁaÄŁÄ±": 1748, "Ġsen": 1749, "CK": 1750, "Ġyarar": 1751, "ĠbaÄŁlÄ±": 1752, "dÃ¼ÄŁ": 1753, "ektr": 1754, "ĠAncak": 1755, "ĠarkadaÅŁ": 1756, "Ġsavun": 1757, "ile": 1758, "Ġsur": 1759, "ĠyÃ¶ntem": 1760, "tiv": 1761, "Ġeder": 1762, "lamak": 1763, "NANMASINA": 1764, "UK": 1765, "Ġfir": 1766, "Ã¼ÅŁter": 1767, "cut": 1768, "Ġth": 1769, "Ġetmek": 1770, "ost": 1771, "laÅŁtÄ±r": 1772, "Ġtazmin": 1773, "Ġihtiy": 1774, "ilmesine": 1775, "isine": 1776, ")</": 1777, "ĠBaÅŁkan": 1778, "meyen": 1779, "ĠYÃ¶n": 1780, "ĠgeÃ§ir": 1781, "azar": 1782, "ĠTar": 1783, "ĠiÃ§erisinde": 1784, "ĠÄ°s": 1785, "ekk": 1786, "ĠkaÃ§": 1787, "34": 1788, "elen": 1789, "ĠsanÄ±ÄŁÄ±n": 1790, "ĠyÄ±lÄ±nda": 1791, "Ġsorun": 1792, "Ġayr": 1793, "II": 1794, "Ġoldu": 1795, "Ġincelem": 1796, "ĠEk": 1797, "Ġgereken": 1798, "Ã§ok": 1799, "nun": 1800, "Ġey": 1801, "ayet": 1802, "caÄŁ": 1803, "Ġbiri": 1804, "ĠBeled": 1805, "mer": 1806, "per": 1807, "ĠSon": 1808, "ĠverilmiÅŁtir": 1809, "ĠdavacÄ±nÄ±n": 1810, "lamasÄ±": 1811, "Ġkolay": 1812, "las": 1813, "Ġmut": 1814, "arasÄ±": 1815, "Ġprogram": 1816, "masÄ±nda": 1817, "Ġkurum": 1818, "ÃľK": 1819, "ĠalÄ±nan": 1820, "ĠÃ§eÅŁit": 1821, "Ġtasar": 1822, "Ġpr": 1823, "diÄŁ": 1824, "IN": 1825, "Ã¼len": 1826, "Ġkit": 1827, "38": 1828, "ĠONANMASINA": 1829, "ere": 1830, "Ġada": 1831, "ebil": 1832, "ilere": 1833, "gin": 1834, "rar": 1835, "Ġuzun": 1836, "Ġkom": 1837, "'a": 1838, "suz": 1839, "ĠÃ¶ÄŁrenc": 1840, "Ġgider": 1841, "ĠBaÅŁkanÄ±": 1842, "ĠÙ": 1843, "ody": 1844, "og": 1845, "ĠkadÄ±n": 1846, "08": 1847, "ĠmÃ¼da": 1848, "Ġgelir": 1849, "sup": 1850, "ber": 1851, "str": 1852, "Ġedilmesi": 1853, "âĢĻda": 1854, "Ġmerkez": 1855, "elere": 1856, "Ġhan": 1857, "\">": 1858, "ĠadÄ±na": 1859, "ead": 1860, "ĠyatÄ±rÄ±m": 1861, "Ġkav": 1862, "31": 1863, "ĠbiÃ§": 1864, "ĠtaÅŁÄ": 1865, "ĠtaÅŁÄ±": 1866, "Ġtr": 1867, "ĠsÃ¼re": 1868, "Ġifade": 1869, "Ġle": 1870, "ĠDav": 1871, "Ġhaber": 1872, "Ġbildir": 1873, "ĠMÃ¼dÃ¼r": 1874, "atan": 1875, "Ġso": 1876, "ĠduruÅŁ": 1877, "esinden": 1878, "uluk": 1879, "ĠâĢĵ": 1880, "ĠÃ¶zellik": 1881, "ĠSay": 1882, "osya": 1883, "Ã¼ltÃ¼r": 1884, "Ġiptal": 1885, "kinci": 1886, "ĠkabulÃ¼ne": 1887, "ĠHaz": 1888, "tb": 1889, "ale": 1890, "ĠyaklaÅŁ": 1891, "Ġharc": 1892, "aliyet": 1893, "isinin": 1894, "ĠÃ¶d": 1895, "ĠkaldÄ±r": 1896, "Ġtam": 1897, "ĠkoÅŁ": 1898, "ĠaraÃ§": 1899, "icaret": 1900, "daÅŁ": 1901, "ant": 1902, "Ġoyn": 1903, "Ä±lmÄ±ÅŁ": 1904, "*,": 1905, "Ġolun": 1906, "mesine": 1907, "ĠGÃ¼n": 1908, "Ġdikkat": 1909, "60": 1910, "Ġgeri": 1911, "sin": 1912, "ĠTem": 1913, "ĠitirazlarÄ±nÄ±n": 1914, "ĠTCK": 1915, "Ġproj": 1916, "ĠAdliye": 1917, "ĠkÄ": 1918, "umlu": 1919, "ĠÃ¶lÃ§": 1920, "gil": 1921, "oÄŁun": 1922, "Ġyetk": 1923, "Ġkes": 1924, "44": 1925, "Ġmey": 1926, "Ġber": 1927, "Ä±sÄ±nda": 1928, "Ġkonusunda": 1929, "ĠkÄ±": 1930, "65": 1931, "Ġ=": 1932, "Ġtarihi": 1933, "ĠkayÄ±t": 1934, "aj": 1935, "Tar": 1936, "-i": 1937, "DA": 1938, "ĠkiÅŁi": 1939, "mayan": 1940, "ĠMil": 1941, "Ġdok": 1942, "Ġverilmesi": 1943, "ĠBÃ¶lge": 1944, "ĠkararÄ±nÄ±n": 1945, "Ġdiye": 1946, "etmen": 1947, "edik": 1948, "Ġre": 1949, "Ġsosyal": 1950, "Ġkontrol": 1951, "ĠYap": 1952, "Ġtoplan": 1953, "Ã¼ncÃ¼": 1954, "Ġceza": 1955, "Ä±ÅŁÄ": 1956, "Ä±ÅŁÄ±": 1957, "hangi": 1958, "iÅŁi": 1959, "ts": 1960, "Ä°R": 1961, "akat": 1962, "ĠBur": 1963, "Ġtemel": 1964, "cil": 1965, "Ġ|": 1966, "isini": 1967, "Ġsig": 1968, "tbody": 1969, "ĠIn": 1970, "Ġper": 1971, "Ġekonom": 1972, "ĠbakÄ±m": 1973, "Ġalacak": 1974, "Ã¼Ã§Ã¼k": 1975, "As": 1976, "!Ċ": 1977, "ÃľM": 1978, "lemek": 1979, "ĠgeliÅŁtir": 1980, "ĠyÃ¶netim": 1981, "Ä±lÄ±ÄŁÄ±": 1982, "ĠÃ¶zellikle": 1983, "fer": 1984, "39": 1985, "madan": 1986, "Ġhis": 1987, "Ġolabilir": 1988, "elerinin": 1989, "LAR": 1990, "ĠtebliÄŁ": 1991, "Ġbed": 1992, "ĠÃ¼zerinden": 1993, "alet": 1994, "tor": 1995, "Ġbahis": 1996, "Ã¼mÃ¼z": 1997, "Ġbun": 1998, "45": 1999, "ite": 2000, "ĠÅŁekl": 2001, "ĠCumhuriyet": 2002, "ĠiÅŁlet": 2003, "ĠDev": 2004, "umu": 2005, "Ġzarar": 2006, "ekli": 2007, "ĠvardÄ±r": 2008, "Ã¶k": 2009, "ĠAnkara": 2010, "ĠaykÄ±rÄ": 2011, "ĠaykÄ±rÄ±": 2012, "ag": 2013, "Mahkem": 2014, "Ġsonunda": 2015, "ĠayrÄ±": 2016, "ĠyakÄ±n": 2017, "Ġsuret": 2018, "ĠÃ§evr": 2019, "efon": 2020, "ĠaÃ§Ä±klama": 2021, "dd": 2022, "ĠmÃ¼ÅŁter": 2023, "ĠolduÄŁundan": 2024, "Ġhus": 2025, "Ġitibaren": 2026, "baÅŁ": 2027, "Ġbozma": 2028, "ĠsaÄŁlÄ±k": 2029, "niv": 2030, "ilmiÅŁtir": 2031, "ĠdÃ¼zenlenen": 2032, "Ġolmayan": 2033, "Ġgit": 2034, "AK": 2035, "ĠMuh": 2036, "Ġmahkemece": 2037, "elim": 2038, "ĠRes": 2039, "Ä±lacak": 2040, "AY": 2041, "Ġterc": 2042, "dana": 2043, "ĠBO": 2044, "Bir": 2045, "###": 2046, "iyorum": 2047, "com": 2048, "Ġdedi": 2049, "gÃ¶r": 2050, "âĢĻnin": 2051, "âĢĻde": 2052, "Ġileri": 2053, "zer": 2054, "Ġbilin": 2055, "ĠsÃ¼rec": 2056, "Ġdevlet": 2057, "ĠMah": 2058, "Ġdem": 2059, "TÃ¼rk": 2060, "ĠyayÄ±n": 2061, "Ġmadde": 2062, "ĠyazÄ": 2063, "ĠyazÄ±": 2064, "Ġsonucu": 2065, "ĠdÄ±ÅŁÄ±nda": 2066, "Ġvekilinin": 2067, "Ä±sÄ±ndan": 2068, "Ġmu": 2069, "Ã¼nkÃ¼": 2070, "ED": 2071, "dikten": 2072, "Ġindir": 2073, "are": 2074, "Ã§Ä": 2075, "Ã§Ä±": 2076, "leyen": 2077, "48": 2078, "thead": 2079, "Ġ/": 2080, "niversit": 2081, "ĠdeÄŁiÅŁtir": 2082, "Ġla": 2083, "Ġyolu": 2084, "47": 2085, "erj": 2086, "ĠbaÅŁar": 2087, "lim": 2088, "Ġfaaliyet": 2089, "ĠbirÃ§ok": 2090, "Ä°K": 2091, "Ġmiktar": 2092, "Ġtakip": 2093, "ĠdeÄŁildir": 2094, "edef": 2095, "Ġcev": 2096, "Ġmem": 2097, "isyon": 2098, "LER": 2099, "Ġmodel": 2100, "Ġeksik": 2101, "Ġgr": 2102, "Dosya": 2103, "Ä±lÄ±r": 2104, "ore": 2105, "Ġherhangi": 2106, "ĠaltÄ±nda": 2107, "Ġtaleb": 2108, "kum": 2109, "Ġtazminat": 2110, "alt": 2111, "ĠedilmiÅŁtir": 2112, "ĠÃ¼retim": 2113, "Ġinceleme": 2114, "ĠBakan": 2115, "sizlik": 2116, "Ã¼mÃ¼": 2117, "ĠAsliye": 2118, "Ġtoplum": 2119, "Ġbile": 2120, "33": 2121, "Ġkoy": 2122, "mel": 2123, "ĠpaylaÅŁ": 2124, "oÄŁraf": 2125, "dÄ±ndan": 2126, "ĠbiÃ§im": 2127, "eg": 2128, "lardÄ±r": 2129, "Ġcon": 2130, "Ġstr": 2131, "ĠyÃ¶nÃ¼nden": 2132, "Ġav": 2133, "ĠbulunduÄŁu": 2134, "ĠÃ§alÄ±ÅŁan": 2135, "inizi": 2136, "ĠÄ°lk": 2137, "ĠamacÄ±": 2138, "Ġdir": 2139, "oÅŁ": 2140, "ĠÅŁart": 2141, "ĠÅŁu": 2142, "mez": 2143, "ĠbaÄŁlan": 2144, "Ä±lÄ±ÄŁ": 2145, "alar": 2146, "Ġkir": 2147, "ĠamaÃ§": 2148, "Ġtercih": 2149, "obil": 2150, "lerimiz": 2151, "Ġorta": 2152, "Ä±lmasÄ±na": 2153, "ĠaraÅŁtÄ±rma": 2154, "ĠgeÃ§en": 2155, "ĠaÃ§Ä±klanan": 2156, "Ġmaddesinde": 2157, "Ġeylem": 2158, "Ġetkin": 2159, "ĠÃĸzel": 2160, "ĠolmadÄ±ÄŁÄ±": 2161, "ĠyaptÄ±ÄŁÄ±": 2162, "cek": 2163, "ĠAB": 2164, "Ġdeney": 2165, "ĠkÄ±r": 2166, "ucu": 2167, "ĠaÄŁÄ±r": 2168, "Ä±nÄ±f": 2169, "ĠÃ¶rg": 2170, ".</": 2171, "ĠyukarÄ±da": 2172, "Ġtat": 2173, "Ġnitelik": 2174, "ĠbÃ¶yle": 2175, "Ġilet": 2176, "mir": 2177, "ĠdÃ¶nÃ¼ÅŁ": 2178, "55": 2179, "ilmektedir": 2180, "Ġsuretiyle": 2181, "Ùİ": 2182, "ĠkapsamÄ±nda": 2183, "ĠBÃ¼yÃ¼k": 2184, "ht": 2185, "Ġgrup": 2186, "ĠTek": 2187, "rupa": 2188, "ess": 2189, "ĠÃ¼ret": 2190, "lÃ¼ÄŁÃ¼": 2191, "uslar": 2192, "enek": 2193, "evi": 2194, "oÄŁu": 2195, "Ġziy": 2196, "49": 2197, "Ġpiyas": 2198, "Ġot": 2199, "ĠgerÃ§ekleÅŁ": 2200, "Ġgerekli": 2201, "ĠkatÄ±lan": 2202, "rac": 2203, "67": 2204, "meli": 2205, "caÄŁÄ±": 2206, "ZUL": 2207, "Ġmer": 2208, "ĠhÃ¼kÃ¼met": 2209, "ĠÃ¶den": 2210, "ve": 2211, "eÄŁin": 2212, "ternet": 2213, "'ye": 2214, "Ġsonucunda": 2215, "Ġ</": 2216, "Ġyapan": 2217, "ast": 2218, "Ġedilmekle": 2219, "aha": 2220, "ĠdaÄŁ": 2221, "lÃ¼l": 2222, "ĠAyrÄ±ca": 2223, ".com": 2224, ".\"": 2225, "Ġst": 2226, "Ġzamanda": 2227, "Ġanal": 2228, "ĠPar": 2229, "tiÄŁi": 2230, "bol": 2231, "ĠHer": 2232, "ith": 2233, "Ġmi": 2234, "makta": 2235, "Ä°Z": 2236, "ayÄ±n": 2237, "ĠgÃ¶zet": 2238, "malarÄ±": 2239, "ulmasÄ±": 2240, "Ġedildi": 2241, "ZULMASINA": 2242, "Ġmevcut": 2243, "Ġbe": 2244, "ĠgÃ¼nÃ¼": 2245, "ĠkÄ±sm": 2246, "Ġdavran": 2247, "AT": 2248, "Ġbenim": 2249, "Ġilam": 2250, "umuz": 2251, "Ġbelirtilen": 2252, "Ġmark": 2253, "Ġortak": 2254, "Ã¼b": 2255, "Ġkanun": 2256, "ĠsatÄ±ÅŁ": 2257, "Ġiddia": 2258, "Ġyasal": 2259, "lek": 2260, "ÃľR": 2261, "Ã¼c": 2262, "ĠsÄ±rasÄ±nda": 2263, "ĠGazet": 2264, ">-</": 2265, "gÄ±n": 2266, "ĠyaÅŁam": 2267, "ele": 2268, "ĠdÃ¼ny": 2269, "ĠKarar": 2270, "±da": 2271, "ime": 2272, "Ä±da": 2273, "Ġbilir": 2274, "_{": 2275, "vet": 2276, "âĢĻÄ±n": 2277, "Åŀekil": 2278, "Ġtelefon": 2279, "Ġerk": 2280, "OR": 2281, "ali": 2282, "Ġdep": 2283, "ĠUy": 2284, "Ġikinci": 2285, "Ġhedef": 2286, "esince": 2287, "ÃľKÃľM": 2288, "ĠÄ°Ã§": 2289, "ÙĨ": 2290, "'e": 2291, "lÃ¼ÄŁe": 2292, "enc": 2293, "ladÄ±": 2294, "Taraf": 2295, "ĠoldukÃ§a": 2296, "ĠgeniÅŁ": 2297, "Ġmek": 2298, "ĠdÃ¼nya": 2299, "inaf": 2300, "ust": 2301, "ĠraÄŁ": 2302, "ity": 2303, "Ġdiy": 2304, "Ġyorum": 2305, "Ġgiren": 2306, "ĠBOZULMASINA": 2307, "197": 2308, "ĠMahkemesinin": 2309, "Ġanlat": 2310, "ĠsÃ¶yl": 2311, "acaÄŁÄ±": 2312, "Ġyine": 2313, "ĠsektÃ¶r": 2314, "etk": 2315, "ĠÃ¼n": 2316, "Ġmas": 2317, "Ġ[": 2318, "ilerinin": 2319, "ob": 2320, "elerde": 2321, "ĠkoÅŁul": 2322, "ĠaÃ§Ä±sÄ±ndan": 2323, "iyi": 2324, "ĠtÃ¼k": 2325, "ĠKurulu": 2326, "sanÄ±z": 2327, "Ġsab": 2328, "ĠGÃ¶r": 2329, "ĠEl": 2330, "larÄ±yla": 2331, "ĠThe": 2332, "Ã¢n": 2333, "dÄ±n": 2334, "ank": 2335, "ĠÃľniversit": 2336, "Ġtart": 2337, "ĠardÄ±ndan": 2338, "Ġrahat": 2339, "Ġveren": 2340, "ĠkÄ±sa": 2341, "Ġtedav": 2342, "Ġfilm": 2343, "oÄŁan": 2344, "ĠTop": 2345, "esel": 2346, "kumiyet": 2347, "ĠraÄŁmen": 2348, "Ġortam": 2349, "lanmasÄ±": 2350, "âĢĻin": 2351, "ĠhiÃ§bir": 2352, "Ġderece": 2353, "ĠsÄ±ra": 2354, "ĠYÄ±l": 2355, "58": 2356, "ĠettiÄŁi": 2357, "isk": 2358, "manÄ±z": 2359, "ĠyaÄŁ": 2360, "ĠBunun": 2361, "iyoruz": 2362, "ĠdosyanÄ±n": 2363, "ĠkÃ¼Ã§Ã¼k": 2364, "ĠâĢĺ": 2365, "UR": 2366, "det": 2367, "ecektir": 2368, "Ġtoplam": 2369, "cad": 2370, "iÄŁine": 2371, "ĠyaÅŁan": 2372, "523": 2373, "Ġetkil": 2374, "Ġbirinci": 2375, "ĠOn": 2376, "Ġbedel": 2377, "ĠyÃ¼zde": 2378, "ĠDeÄŁ": 2379, "luluk": 2380, "ĠkullanÄ±cÄ±": 2381, "ong": 2382, "ĠgiriÅŁ": 2383, "asÄ±nÄ±": 2384, "Ġday": 2385, "Ġengel": 2386, "Ġyapmak": 2387, "din": 2388, "<br": 2389, "eÄŁinin": 2390, "ĠKay": 2391, "aban": 2392, "ĠyÃ¼rÃ¼rlÃ¼ÄŁe": 2393, "urt": 2394, "Ä±ldÄ±ÄŁÄ±": 2395, "ĠÃ§eÅŁitli": 2396, "ĠÃ¶rnek": 2397, "Ä±ldÄ±": 2398, "HÃľKÃľM": 2399, "ĠÄ°z": 2400, "ĠÂ": 2401, "malÄ±dÄ±r": 2402, "Ġvur": 2403, "Ġkalan": 2404, "Ġkez": 2405, "ĠbÃ¼y": 2406, "Ġtap": 2407, "ĠoluÅŁan": 2408, "ĠTur": 2409, "Ġdurumda": 2410, "SUÃĩ": 2411, "Ã¼lÃ¼p": 2412, "'s": 2413, "unca": 2414, "Ġimz": 2415, "Ġteh": 2416, "527": 2417, "Ġelektr": 2418, "dÄ±ÄŁÄ±na": 2419, "ĠborÃ§": 2420, "Ġtur": 2421, "Ã¼sÃ¼": 2422, "Ġul": 2423, "emesi": 2424, "ĠSer": 2425, "Ġmilyon": 2426, "ĠtartÄ±ÅŁ": 2427, ">T": 2428, "Ġrek": 2429, "Ġisim": 2430, "uÅŁmaz": 2431, "ĠtanÄ±m": 2432, "Ä±lma": 2433, "olojik": 2434, "Ġsebeb": 2435, "tin": 2436, "Ġkalit": 2437, "San": 2438, "dak": 2439, "ĠmaÄŁ": 2440, "ĠboÅŁ": 2441, "ĠEsas": 2442, "DavacÄ±": 2443, "ĠfÄ±krasÄ±": 2444, "Ã¼f": 2445, "Ġbirbir": 2446, "68": 2447, "taj": 2448, "ĠdÃ¼zey": 2449, "menin": 2450, "ĠverilmiÅŁ": 2451, "oloji": 2452, "ĠsaÄŁlay": 2453, "abÄ": 2454, "Ġinan": 2455, "Ä°Y": 2456, "ĠgÃ¶rÃ¼lmem": 2457, "ww": 2458, "Ġisabet": 2459, "Ġincelendi": 2460, "32": 2461, "ĠdÃ¼zenlen": 2462, "Ġarac": 2463, "abÄ±": 2464, "EV": 2465, "ilerini": 2466, "ĠmÄ": 2467, "bi": 2468, "lilik": 2469, "|Ċ": 2470, "dÄ±ÄŁÄ±nda": 2471, "Ġparsel": 2472, "Ġyen": 2473, "Ġzorun": 2474, "ĠAvrupa": 2475, "âĢ¢": 2476, "ĠiÅŁin": 2477, "lÄ±lÄ±k": 2478, "sman": 2479, "ĠÅŁeklinde": 2480, "ĠkÄ±z": 2481, "$$": 2482, "diÄŁini": 2483, "cra": 2484, "sat": 2485, "madd": 2486, "ĠmÄ±": 2487, "57": 2488, "Ġhafta": 2489, "ĠitirazlarÄ±": 2490, "ino": 2491, "ansÄ": 2492, "ansÄ±": 2493, "ĠfÄ±r": 2494, "ĠuÃ§": 2495, "ĠiÅŁver": 2496, "Ġadet": 2497, "ĠHas": 2498, "Ġ+": 2499, "tiÄŁ": 2500, "ĠÃĸÄŁr": 2501, "Ä°ÅŁ": 2502, "141": 2503, "Ġrow": 2504, "be": 2505, "of": 2506, "Ġsoru": 2507, "lerdir": 2508, "dÄ±ktan": 2509, "Ã¼kÃ¼m": 2510, "Ġbelgeler": 2511, "atandaÅŁ": 2512, "Kar": 2513, "ĠHal": 2514, "ly": 2515, "ĠÃ¶ngÃ¶r": 2516, "Ġrowspan": 2517, "ĠyÃ¼ksel": 2518, "ebilirsiniz": 2519, "mam": 2520, "Asliye": 2521, "ĠtaÅŁÄ±nmazÄ±n": 2522, "Ġmaddeleri": 2523, "Ġhep": 2524, "Ġveril": 2525, "Taraflar": 2526, "Ġtav": 2527, "etr": 2528, "ĠNe": 2529, "Ġtekrar": 2530, "Ġ**": 2531, "ĠdÃ¼zeltme": 2532, "amaz": 2533, "ĠkÃ¼ltÃ¼r": 2534, "ĠdoÄŁr": 2535, "Ä°M": 2536, "-Ċ": 2537, "ĠiÅŁÃ§": 2538, "Ġsil": 2539, "46": 2540, "na": 2541, ">S": 2542, "Ġreddi": 2543, "Ġhastal": 2544, "Ġokul": 2545, "sÄ±nÄ±z": 2546, "inc": 2547, "dit": 2548, "lis": 2549, "Ã¼ÄŁ": 2550, "otoÄŁraf": 2551, "Ġsiyas": 2552, "Ġbunun": 2553, "Ġorgan": 2554, "atif": 2555, "ded": 2556, "meyi": 2557, "ĠBen": 2558, "ĠÃĸn": 2559, "Ġkural": 2560, "Ġorman": 2561, "kÄ±n": 2562, "ĠihtiyaÃ§": 2563, "ablo": 2564, "ĠedilmiÅŁ": 2565, "Ġkas": 2566, "Ġziyaret": 2567, "rafik": 2568, "elerinde": 2569, "azi": 2570, "Ġsp": 2571, "Ġac": 2572, "Ġtutan": 2573, "erson": 2574, "ĠyayÄ±m": 2575, "ula": 2576, "Ġuzak": 2577, "liyet": 2578, "90": 2579, "AS": 2580, "ĠsuÃ§undan": 2581, "etkik": 2582, "Ġhemen": 2583, "ĠartÄ±r": 2584, "Ä°NE": 2585, "ĠTr": 2586, "Ġfay": 2587, "Ġses": 2588, "sen": 2589, "mediÄŁ": 2590, "hbet": 2591, "ĠpeÅŁ": 2592, "co": 2593, "ĠalÄ±narak": 2594, "ĠAt": 2595, "rom": 2596, "ĠÃ§Ã¶zÃ¼m": 2597, "Ġbilirk": 2598, "Ġdes": 2599, "Ø±": 2600, "Ġtarihinden": 2601, "luÄŁ": 2602, "ĠyoÄŁun": 2603, "--": 2604, "ĠsÄ±nÄ±f": 2605, "Ġmeydana": 2606, "lk": 2607, "eceÄŁini": 2608, "Ar": 2609, "<table": 2610, "elerine": 2611, "ĠdÃ¼ÅŁÃ¼k": 2612, "Ġvak": 2613, "ĠAÄŁ": 2614, "Ġsak": 2615, "Ġhap": 2616, "iyesi": 2617, "elerini": 2618, "ĠEÄŁitim": 2619, "Ġcin": 2620, ".madd": 2621, "Ä°n": 2622, "ilerine": 2623, "62": 2624, "usal": 2625, "Ġerkek": 2626, "ĠseÃ§im": 2627, "ĠkullanÄ±lan": 2628, "Ġreddiyle": 2629, "ĠDr": 2630, "Ġders": 2631, "ĠhÄ±zlÄ±": 2632, "ĠYÃ¼k": 2633, "Ġnedenlerle": 2634, "asÄ±ndan": 2635, "Ġpek": 2636, "Ġsap": 2637, "Ġgrub": 2638, "ĠMerkez": 2639, "leriyle": 2640, "ĠKal": 2641, "Ġistinaf": 2642, "bo": 2643, "AP": 2644, "Ġir": 2645, "Ġrenk": 2646, "Ġdak": 2647, "meden": 2648, "Ġincelenerek": 2649, "Ġokun": 2650, "ift": 2651, "laÅŁtÄ±rma": 2652, "AB": 2653, "Ġnokta": 2654, "mesini": 2655, "ĠÃ¶rgÃ¼t": 2656, "Ġmen": 2657, "ĠyardÄ±mcÄ±": 2658, "±larak": 2659, "Ä±larak": 2660, "amp": 2661, "atÄ±lan": 2662, "uan": 2663, "LI": 2664, "Ġeski": 2665, "Ġhiss": 2666, "ĠsÄ±cak": 2667, "ĠÃĸr": 2668, "ĠgÃ¶rÃ¼ÅŁÃ¼lÃ¼p": 2669, "Ġdahil": 2670, "ĠÃ§Ä±kan": 2671, "Ġwith": 2672, "Ġara": 2673, "uÅŁturma": 2674, "ĠduruÅŁma": 2675, "Ġdikkate": 2676, "dÄ±klarÄ±": 2677, "cÄ±lÄ±k": 2678, "ĠartÄ±k": 2679, "ayas": 2680, "matik": 2681, "ĠsÃ¼rdÃ¼r": 2682, "Ġtapu": 2683, "sÄ±zlÄ±k": 2684, "aln": 2685, "ĠetmiÅŁtir": 2686, "Ġspor": 2687, "Ùĩ": 2688, "ha": 2689, "ĠNo": 2690, "ĠHaber": 2691, "Ġcevap": 2692, "ĠyapÄ±lmasÄ±": 2693, "Ġenerj": 2694, "ĠÃľniversitesi": 2695, "Ä°S": 2696, "Ġisteyen": 2697, "ĠDevlet": 2698, "ocu": 2699, "ĠkuruluÅŁ": 2700, "Ġsize": 2701, "Ġteknik": 2702, "ĠBey": 2703, "ĠVer": 2704, "uc": 2705, "blem": 2706, "ĠsayÄ±sÄ±": 2707, "ĠKARAR": 2708, "âĢĻnÄ±n": 2709, "Ġyasaya": 2710, "ĠYeni": 2711, "Ã¼ler": 2712, "Ġbirey": 2713, "Ġhangi": 2714, "ĠkullanÄ±m": 2715, "Ã¶rt": 2716, "ĠkÄ±smen": 2717, "ĠtakÄ±m": 2718, "NE": 2719, "gen": 2720, "Ġdet": 2721, "alnÄ±z": 2722, "pp": 2723, "lenmesi": 2724, "ĠDÃ¼n": 2725, "Ġkanuna": 2726, "anlÄ±": 2727, "59": 2728, "ĠgenÃ§": 2729, "ĠilÃ§": 2730, "lÄ±yor": 2731, "ĠKurul": 2732, "ĠkarÅŁÄ±sÄ±nda": 2733, "Ġhalde": 2734, "Ġberaber": 2735, "Ġdevr": 2736, "80": 2737, "Ġortal": 2738, "42": 2739, "imdi": 2740, "ga": 2741, "Ġhale": 2742, "ĠaraÅŁtÄ±r": 2743, "imin": 2744, "Ġkil": 2745, "Ġolmakla": 2746, "Ġj": 2747, "med": 2748, "ĠsatÄ±n": 2749, "Ġted": 2750, "luÄŁu": 2751, "ij": 2752, "anÄ±ÅŁ": 2753, "LA": 2754, "ĠOk": 2755, "Ġkurulan": 2756, "ĠvatandaÅŁ": 2757, "ayÄ±sÄ±": 2758, "omut": 2759, "ĠÄ°st": 2760, "mat": 2761, "Al": 2762, "Ä±rken": 2763, "lanarak": 2764, "Ġolsun": 2765, "Ġifad": 2766, "Ġthat": 2767, "Ġcih": 2768, "Ġtip": 2769, "osu": 2770, "ĠadÄ±": 2771, "ĠÃ§iz": 2772, "lanma": 2773, "ÙĪ": 2774, "Ġekonomik": 2775, "Ġyarat": 2776, "Ġmalz": 2777, "ĠABD": 2778, "ĠEv": 2779, "âĢľ": 2780, "meleri": 2781, "66": 2782, "ersiz": 2783, "ĠamacÄ±yla": 2784, "Ġbeyan": 2785, "omp": 2786, "lin": 2787, ">K": 2788, "Ġoda": 2789, "ĠgerektiÄŁi": 2790, "70": 2791, "Ġticaret": 2792, "Ġonun": 2793, "\",": 2794, "ĠÃ¶ÄŁretmen": 2795, "emez": 2796, "Ġtabi": 2797, "ĠyÃ¼rÃ¼t": 2798, "isel": 2799, "Ġmed": 2800, "hine": 2801, "43": 2802, "esindeki": 2803, "Ä±lÄ±m": 2804, "Ġtescil": 2805, "onu": 2806, "ĠÃ§aÄŁ": 2807, "bak": 2808, "Ġeki": 2809, "Ġtemsil": 2810, "Ġnedeni": 2811, "Ġyeterli": 2812, "Ġele": 2813, "................": 2814, "ÛĮ": 2815, "Ġbunu": 2816, "Ġalmak": 2817, "emi": 2818, "Ġdenetim": 2819, "ĠKad": 2820, "Ġsey": 2821, "Ã¢l": 2822, ".âĢĿ": 2823, "ĠÄ±s": 2824, "ĠHar": 2825, "err": 2826, "ĠsÃ¼rekli": 2827, "ĠØ§": 2828, "TÃ¼rkiye": 2829, "iliÄŁi": 2830, "Ġtemiz": 2831, "ĠmÃ¼cad": 2832, "ĠSaÄŁ": 2833, "ĠÃ¶ner": 2834, "Ġpolitik": 2835, "doÄŁan": 2836, "Ġnitel": 2837, "Ġbeklen": 2838, "Ã§Ä±k": 2839, "taÅŁ": 2840, "Ġfin": 2841, "ĠMahkemece": 2842, "Ġfak": 2843, "ĠcanlÄ±": 2844, "izm": 2845, "75": 2846, "lulu": 2847, "'ya": 2848, "Ġherk": 2849, "celik": 2850, "Ġsanat": 2851, "Ġmahkeme": 2852, "DI": 2853, "sur": 2854, "asino": 2855, "Ä±lmÄ±ÅŁtÄ±r": 2856, "ĠayrÄ±ca": 2857, "tep": 2858, "ern": 2859, "ĠbaÅŁlan": 2860, "Ùħ": 2861, "ĠiletiÅŁim": 2862, "erel": 2863, "Ġask": 2864, "ĠÃ¶deme": 2865, "ĠAma": 2866, "uslararasÄ±": 2867, "Ġare": 2868, "Ã¼ven": 2869, "ĠyÄ±llÄ±k": 2870, "ĠKo": 2871, "99": 2872, "ĠX": 2873, "ĠDerece": 2874, "Ġederek": 2875, "afa": 2876, "avc": 2877, "tarÄ±": 2878, "imleri": 2879, "Dava": 2880, "Ġ.": 2881, "ĠbulunmaktadÄ±r": 2882, "ĠuÄŁr": 2883, "sunuz": 2884, "Ġex": 2885, "Ä±ntÄ±": 2886, "liy": 2887, "tic": 2888, "eÅŁtir": 2889, "avaÅŁ": 2890, "Ã¼le": 2891, "196": 2892, "ĠResmi": 2893, "ĠinÅŁ": 2894, "ĠEy": 2895, "85": 2896, "ĠaÃ§Ä±klan": 2897, "ani": 2898, "VA": 2899, "isay": 2900, "eliÄŁi": 2901, "ola": 2902, "ult": 2903, "ĠGel": 2904, "ĠyanÄ±": 2905, "kar": 2906, "ĠCMK": 2907, "yas": 2908, "Ġail": 2909, "alama": 2910, "ĠkarÄ±ÅŁ": 2911, "KARAR": 2912, "ĠiÅŁveren": 2913, "ĠOsman": 2914, "ĠkiÅŁinin": 2915, "Ġtesi": 2916, "lÄ±ÄŁÄ±n": 2917, "istan": 2918, "ĠGÃĸ": 2919, "form": 2920, "-Ä": 2921, "ĠsavaÅŁ": 2922, "ĠmÃ¼z": 2923, ".g": 2924, "ĠVE": 2925, "Ġmaddi": 2926, "Ġwh": 2927, "Ġsahibi": 2928, "cort": 2929, "Ġgeldi": 2930, "Ġizin": 2931, "Ġdinlen": 2932, "asyonu": 2933, "ĠsaldÄ±r": 2934, "ĠalÄ±ÅŁ": 2935, "ĠbulunmadÄ±ÄŁÄ±": 2936, "ÃľN": 2937, "unuyor": 2938, "HP": 2939, "Ġuzman": 2940, "ork": 2941, "ÄŁinde": 2942, "Ġfi": 2943, "forman": 2944, "mesinde": 2945, "41": 2946, "-Ä±": 2947, "Ġotur": 2948, "ren": 2949, "Ġcol": 2950, "Ġnokt": 2951, "ĠfotoÄŁraf": 2952, "Ġedin": 2953, "yo": 2954, "ĠverdiÄŁi": 2955, "Ġboyut": 2956, "Ġpazar": 2957, "ĠBelediye": 2958, "ĠÃĩÃ¼nkÃ¼": 2959, "Ġinci": 2960, "larÄ±nÄ±z": 2961, "ĠuygulanmasÄ±": 2962, "Ġekip": 2963, "usunun": 2964, "abancÄ±": 2965, "ĠgÃ¶sterilen": 2966, "Ġyat": 2967, "Ġana": 2968, "ĠsÃ¶yledi": 2969, "teki": 2970, "SON": 2971, "ĠAh": 2972, "69": 2973, "ĠbaÅŁvuru": 2974, "ĠkÃ¶y": 2975, "UM": 2976, "alarÄ±": 2977, "ĠBiz": 2978, "ukat": 2979, "anlar": 2980, "ĠdeÄŁiÅŁiklik": 2981, "Ġ&": 2982, "ĠmaÃ§": 2983, "su": 2984, "Ġproblem": 2985, "ĠÃ¶dem": 2986, "atej": 2987, "alat": 2988, "ĠyÃ¶net": 2989, "ĠÃ¶zg": 2990, "ĠpeÅŁin": 2991, "ĠharcÄ±nÄ±n": 2992, "Ġseviy": 2993, "ĠOy": 2994, "Ġkitap": 2995, "ser": 2996, "ĠbiÃ§imde": 2997, "Ä±lÄ±yor": 2998, "Ġinternet": 2999, "uyu": 3000, "Ay": 3001, "ĠdavranÄ±ÅŁ": 3002, "52": 3003, "ĠKas": 3004, "Ġtarihine": 3005, "Ġhukuki": 3006, "tim": 3007, "atur": 3008, "unup": 3009, "Kap": 3010, "Ġ...,": 3011, "ĠyanÄ±nda": 3012, "ĠbugÃ¼n": 3013, "Ġsistemi": 3014, "ĠmÃ¼dafi": 3015, "Ġoto": 3016, "Ġop": 3017, "ĠbilirkiÅŁi": 3018, "Ġsar": 3019, "mesinin": 3020, "Ġhasta": 3021, "ĠaltÄ±na": 3022, "ĠolacaktÄ±r": 3023, "ilip": 3024, "ĠVe": 3025, "lanmÄ±ÅŁ": 3026, "ĠgÃ¶rÃ¼lmÃ¼ÅŁ": 3027, "ĠÃ¼Ã§Ã¼ncÃ¼": 3028, "acaktÄ±r": 3029, "ĠaÅŁaÄŁÄ±daki": 3030, "ÅŁehir": 3031, "lamaya": 3032, "Ġsorum": 3033, "ĠsÃ¼reÃ§": 3034, "Ã§ev": 3035, "yer": 3036, "Ġhapis": 3037, "ĠYasanÄ±n": 3038, "ĠKr": 3039, "Ä±sÄ±nÄ±n": 3040, "Ġoyuncu": 3041, "Ġfirma": 3042, "ĠÅŁeh": 3043, "iliÄŁ": 3044, "line": 3045, "deÅŁ": 3046, "ĠMar": 3047, "Ġboyunca": 3048, "Ġmez": 3049, "our": 3050, "Ġserv": 3051, "Ġby": 3052, "muz": 3053, "ĠÃ§er": 3054, "aÄŁÄ±t": 3055, "Ġdiz": 3056, "ĠSÃ¶z": 3057, "Ġsayesinde": 3058, "gisi": 3059, "dÃ¼ÄŁÃ¼": 3060, "ĠCM": 3061, "Ġiy": 3062, "ĠdÃ¼zenlem": 3063, "rat": 3064, "lÄ±dÄ±r": 3065, "ĠAb": 3066, "Ġfaiz": 3067, "ĠtanÄ±": 3068, "Ġhava": 3069, "ĠuyuÅŁmaz": 3070, "ĠdoÄŁal": 3071, "Ġkut": 3072, "Ġsok": 3073, "Ġolsa": 3074, "Ġincelenmesi": 3075, "emin": 3076, "ĠÅŁik": 3077, "son": 3078, "ĠyalnÄ±z": 3079, "Ġvermek": 3080, "ĠAllah": 3081, "liyor": 3082, "ĠbaÄŁÄ±m": 3083, "ĠÅŁah": 3084, "ĠÅŀub": 3085, "ĠbakÄ±mÄ±ndan": 3086, "ĠSayÄ±lÄ±": 3087, "Ã¢r": 3088, "Ġistek": 3089, "arken": 3090, "Ġisabetsizlik": 3091, "ĠyaklaÅŁÄ±k": 3092, "abilecek": 3093, "ormal": 3094, "<sub": 3095, "ĠDaha": 3096, "mar": 3097, "ĠYÃ¼ksek": 3098, "Ġtrans": 3099, "'i": 3100, "lÄ±ÅŁ": 3101, "Ġetkili": 3102, "ĠyaptÄ±r": 3103, "Ġfik": 3104, "Ġbelli": 3105, "ĠOl": 3106, "ĠadÄ±m": 3107, "Ġlist": 3108, "ĠYÃ¶netim": 3109, "Ġbilgiler": 3110, "har": 3111, "Ġhey": 3112, "Ġtest": 3113, "ira": 3114, "ĠBun": 3115, "ĠseÃ§enek": 3116, "ĠkabulÃ¼": 3117, "laÅŁma": 3118, "Ġit": 3119, "ĠyapÄ±lacak": 3120, "akk": 3121, "efer": 3122, "one": 3123, "ĠAli": 3124, "adolu": 3125, "Ġbozul": 3126, "veriÅŁ": 3127, "âĢ¢Ċ": 3128, "DavalÄ±": 3129, "ĠiÃ§eriÄŁine": 3130, "ĠHay": 3131, "ekkÃ¼r": 3132, "ĠÄ±ÅŁ": 3133, "madÄ±ÄŁÄ±": 3134, "hi": 3135, "Ġkonuda": 3136, "Ġyani": 3137, "ĠRus": 3138, "ĠolmadÄ±ÄŁÄ±nÄ±": 3139, "ital": 3140, "Ġrisk": 3141, "kaÃ§": 3142, "Ġfon": 3143, "ĠtÃ¼rlÃ¼": 3144, "ĠMeh": 3145, "Ä±yoruz": 3146, "Ä±labilir": 3147, "En": 3148, "ĠTarih": 3149, "kil": 3150, "ĠkesinleÅŁ": 3151, "ba": 3152, "532": 3153, "dum": 3154, "MESÄ°": 3155, "best": 3156, "istik": 3157, "Ġazal": 3158, "Ġnumar": 3159, "ayÄ±sÄ±yla": 3160, "Ġedilir": 3161, "ÙĬ": 3162, "Ġsohbet": 3163, "Ġbay": 3164, "Mahkemece": 3165, "ĠMA": 3166, "Ä±yorum": 3167, "Ġpat": 3168, "610": 3169, "Ġdosyadaki": 3170, "name": 3171, "ĠiÅŁaret": 3172, "isayar": 3173, "gun": 3174, "ĠsaÄŁlan": 3175, "hal": 3176, "Son": 3177, "imler": 3178, "Ġadam": 3179, "Ġab": 3180, "ĠÃ§ar": 3181, "imizin": 3182, "ĠbaÅŁladÄ±": 3183, "Ġweb": 3184, "Ġperson": 3185, "dim": 3186, "Ġner": 3187, "Ġbar": 3188, "ĠgeÃ§erli": 3189, "Ġgerekmektedir": 3190, "Tem": 3191, "ĠEt": 3192, "Ġtep": 3193, "ĠisteÄŁinin": 3194, "par": 3195, "Ã¼cÃ¼": 3196, "ĠÃ§ocu": 3197, "TL": 3198, "ĠasÄ±l": 3199, "ĠKam": 3200, "pr": 3201, "77": 3202, "imli": 3203, "yar": 3204, "Ġiad": 3205, "ĠEm": 3206, "makla": 3207, "Ġhalk": 3208, "Ġitibariyle": 3209, "Ã¼st": 3210, "ĠÄ°ngil": 3211, "ĠsÃ¼resinde": 3212, "Ġinf": 3213, "liÄŁini": 3214, "Ġkavram": 3215, "ĠaÅŁama": 3216, "Ġtahsil": 3217, "Ġhusus": 3218, "'nde": 3219, "ĠCMUK": 3220, "SONUÃĩ": 3221, "ment": 3222, "alÄ±nÄ±n": 3223, "adÄ": 3224, "stro": 3225, "vekk": 3226, "Ġam": 3227, "latform": 3228, "ĠhÃ¼kmÃ¼": 3229, "masÄ±ndan": 3230, "ĠkiÅŁiler": 3231, "Ġbanka": 3232, "ĠkarÅŁÄ±lÄ±k": 3233, "ĠbaÅŁlay": 3234, "ĠgÃ¼venlik": 3235, "adÄ±": 3236, "ĠÃ¶nceki": 3237, "Ġnak": 3238, "Ġsin": 3239, "elidir": 3240, "usur": 3241, "Ġtamamen": 3242, "vi": 3243, "ese": 3244, "ĠMay": 3245, "ĠtÄ±k": 3246, "Ġsavunma": 3247, "yle": 3248, "ĠDem": 3249, "ana": 3250, "fet": 3251, "Ġdurumu": 3252, "ĠartÄ±ÅŁ": 3253, "500": 3254, "Ġdurumunda": 3255, "ĠMÃ¼dÃ¼rlÃ¼ÄŁÃ¼": 3256, "aza": 3257, "Ġanlay": 3258, "ĠdilekÃ§esinde": 3259, "iyeti": 3260, "ĠbulunduÄŁ": 3261, "ĠkanÄ±t": 3262, "day": 3263, "BaÅŁ": 3264, "Yap": 3265, "cÄ±sÄ±": 3266, "ĠmÃ¼vekk": 3267, "Ġoluyor": 3268, "Ġform": 3269, "Ġkayb": 3270, "Ġbon": 3271, "UN": 3272, "Ä±ÅŁma": 3273, "Ġisteminin": 3274, "ĠBakanlÄ±ÄŁÄ±": 3275, "âĢĻa": 3276, "ĠÅŁehir": 3277, "ĠedildiÄŁi": 3278, "ĠdÄ±ÅŁÄ": 3279, "ĠdÄ±ÅŁÄ±": 3280, "uvar": 3281, "onik": 3282, "Ġmaddesine": 3283, "tÄ±ÄŁÄ±nÄ±": 3284, "Ġbizim": 3285, "neÄŁin": 3286, "Ġnot": 3287, "ideo": 3288, "ĠbaÅŁarÄ±": 3289, "her": 3290, "ĠistediÄŁ": 3291, "imize": 3292, "Ġbenz": 3293, "emey": 3294, "ĠUz": 3295, "ĠBay": 3296, "umsuz": 3297, "Ġburada": 3298, "Ã¼lt": 3299, "ĠbirliÄŁiyle": 3300, "izik": 3301, "ĠgÃ¼nlÃ¼k": 3302, "Ġprof": 3303, "Ġtec": 3304, "ĠKanununun": 3305, "tel": 3306, "ĠÃĩalÄ±ÅŁ": 3307, "savc": 3308, "ST": 3309, "ala": 3310, "78": 3311, "Ġeser": 3312, "Ġbiraz": 3313, "Ã¢m": 3314, "ĠaldÄ±ÄŁÄ±": 3315, "Ä±sÄ±na": 3316, ".nun": 3317, "otor": 3318, "Ġverilmesini": 3319, "Ġmillet": 3320, "56": 3321, "alÄ±m": 3322, "lÄ±ÄŁÄ±nÄ±": 3323, "ĠaÅŁaÄŁÄ±da": 3324, "can": 3325, "ĠgÃ¼ncel": 3326, "ĠdavasÄ±nÄ±n": 3327, "imizi": 3328, "ĠhÃ¼kÃ¼ml": 3329, "net": 3330, "ich": 3331, "ĠsonrasÄ±": 3332, "Ġperforman": 3333, "Ġcolspan": 3334, "ĠyanlÄ±ÅŁ": 3335, "Ġortalama": 3336, "ĠAK": 3337, "Ġdakika": 3338, "Ġadres": 3339, "ĊĊ": 3340, "ĠgeÃ§ici": 3341, "Ġbuna": 3342, "Ġkul": 3343, "bu": 3344, "ĠetmiÅŁ": 3345, "ĠÃ§erÃ§ev": 3346, "ĠbaÅŁlat": 3347, "Ġbenzer": 3348, "ĠYayÄ±n": 3349, "Ġkent": 3350, "tand": 3351, "Ġedecek": 3352, "ARA": 3353, "ĠAmer": 3354, "Ġdelillerin": 3355, "ĠaÃ§Ä±lan": 3356, "rem": 3357, "Ġunsur": 3358, "sÄ±n": 3359, "yum": 3360, "Ġalma": 3361, "ect": 3362, "Ġvarsa": 3363, "Ġiler": 3364, "ĠKurum": 3365, "ĠtasarÄ±m": 3366, "Ġpuan": 3367, "leÅŁme": 3368, "Ġdal": 3369, "adastro": 3370, "ata": 3371, "ros": 3372, "ĠMan": 3373, "Ġidare": 3374, "Ġanaliz": 3375, "tp": 3376, "ĠDairemiz": 3377, "ediye": 3378, "rek": 3379, "79": 3380, "Ġkusur": 3381, "sim": 3382, "dam": 3383, "iran": 3384, "lÄ±nda": 3385, "Ġhac": 3386, "edeki": 3387, "sta": 3388, "ĠTetkik": 3389, "KapatÄ±lan": 3390, "ĠÄ°zmir": 3391, "ĠsaÄŁlar": 3392, "ĠyÃ¼rÃ¼rlÃ¼k": 3393, "ĠHav": 3394, "Ġanda": 3395, "ayi": 3396, "Ä°lk": 3397, "ĠhakkÄ": 3398, "Ø¯": 3399, "ĠhakkÄ±": 3400, "aca": 3401, "Ġdar": 3402, "ĠTekn": 3403, "ĠdÃ¼ÅŁÃ¼nc": 3404, "ĠkeÅŁ": 3405, "ĠgÃ¶rÃ¼len": 3406, "ĠAnayas": 3407, "Ġmahkumiyet": 3408, "Ġkah": 3409, "Ġtutanak": 3410, "ex": 3411, "Ä±sÄ±nÄ±": 3412, "Ġdetay": 3413, "Ġyapma": 3414, "rim": 3415, "ĠErdoÄŁan": 3416, "ĠMuhak": 3417, "Ġ#": 3418, "ilme": 3419, "Ġonu": 3420, "//": 3421, "Ġgelecek": 3422, "Ġbaz": 3423, "talya": 3424, "LÄ°": 3425, "EC": 3426, "eci": 3427, "ĠoranÄ±": 3428, "Ġaktar": 3429, "Ä±nav": 3430, "ĠmaÄŁdur": 3431, "ĠgerektiÄŁini": 3432, "ĠcezasÄ±": 3433, "terek": 3434, "ĠsayÄ": 3435, "ĠsayÄ±": 3436, "ou": 3437, "Ġyerel": 3438, "Ġiptali": 3439, "Ġpoz": 3440, "54": 3441, "Ġyemek": 3442, "Ġteslim": 3443, "ĠMahkemesince": 3444, "Ġoper": 3445, "'na": 3446, "ons": 3447, "51": 3448, "Ä±nÄ±zÄ": 3449, "Ä±nÄ±zÄ±": 3450, "ĠdÃ¶rt": 3451, "ĠMart": 3452, "ĠdÃ¶nemde": 3453, "ĠaylÄ±k": 3454, "195": 3455, "89": 3456, "ĠniteliÄŁi": 3457, "eceÄŁiniz": 3458, "isan": 3459, "Ġsitesi": 3460, "ĠkaÄŁÄ±t": 3461, "ÅŁÄ": 3462, "dÄ±ÄŁÄ±nÄ±n": 3463, "ĠKullan": 3464, "utbol": 3465, "Ġstratej": 3466, "bÃ¼s": 3467, "ĠAnadolu": 3468, "Ġkendisine": 3469, "Ġmin": 3470, "ÅŁam": 3471, "Ġpart": 3472, "Ġbelirli": 3473, "endik": 3474, "ĠalacaÄŁ": 3475, "Ä°H": 3476, "tÄ±m": 3477, "ĠbaÅŁarÄ±lÄ±": 3478, "ĠBelediyesi": 3479, "lasyon": 3480, "ĠKap": 3481, "ĠDÃ¼nya": 3482, "unan": 3483, "sak": 3484, "Ġsigor": 3485, "Ġins": 3486, "ladÄ±ÄŁÄ±": 3487, "Ġcihaz": 3488, "ĠiliÅŁkindir": 3489, "ĠAlt": 3490, "kemiz": 3491, "ĠBas": 3492, "Ġmo": 3493, "'ne": 3494, "Ġunut": 3495, "Ġgazet": 3496, "Ġbilm": 3497, "ĠparÃ§": 3498, "ĠteÅŁekkÃ¼r": 3499, "ĠÃ¶ldÃ¼r": 3500, "adan": 3501, "Ġpo": 3502, "ÅŁÄ±": 3503, "Ã¢k": 3504, "yanÄ±n": 3505, "ĠGÃ¼ven": 3506, "mediÄŁi": 3507, "rik": 3508, "ĠharÃ§": 3509, "ĠgeÃ§miÅŁ": 3510, "ĠMillet": 3511, "ĠdavalÄ±nÄ±n": 3512, "MESÄ°NE": 3513, "ĠfaktÃ¶r": 3514, "Ġkredi": 3515, "Ġruh": 3516, "nin": 3517, "ĠyÄ±k": 3518, "ĠterÃ¶r": 3519, "ĠyÄ±lÄ±": 3520, "emeleri": 3521, "ĠolmadÄ±ÄŁÄ±na": 3522, "go": 3523, "ĠGazete": 3524, "ĠÃ¼creti": 3525, "Ġhesab": 3526, "likleri": 3527, "ĠÃ§ift": 3528, "resi": 3529, "ton": 3530, "ĠbeÅŁ": 3531, "ĠGeÃ§": 3532, "Ġedilerek": 3533, "ĠUl": 3534, "Äģ": 3535, "ĠSur": 3536, "ĠsaÃ§": 3537, "Ġgerekirken": 3538, "EDD": 3539, "Ġaday": 3540, "ard": 3541, "Ġtedbir": 3542, "AM": 3543, "ĠkatkÄ±": 3544, "://": 3545, "Yerel": 3546, "ĠDoÄŁ": 3547, "lÄ±klÄ±": 3548, "ĠdayalÄ±": 3549, "Ġanla": 3550, "Ġkaybet": 3551, "Ġaley": 3552, "63": 3553, "ĠHazine": 3554, "pat": 3555, "Ġmekan": 3556, "}{": 3557, "ĠdayandÄ±ÄŁÄ±": 3558, "Ġtespiti": 3559, "ĠbirkaÃ§": 3560, "Er": 3561, "Ġsilah": 3562, "Ġgec": 3563, "Ġmahall": 3564, "Ġedebilir": 3565, "ĠalÄ±nmasÄ±": 3566, "Ġgez": 3567, "ĠbasÄ±n": 3568, "ĠdosyasÄ±": 3569, "caÄŁÄ±nÄ±": 3570, "iyon": 3571, "orm": 3572, "Ġkapat": 3573, "Ä°T": 3574, "Ġtoprak": 3575, "Ã¼lÃ¼": 3576, "ĠaÅŁa": 3577, "ens": 3578, ">D": 3579, "(KapatÄ±lan": 3580, "ĠyazÄ±lara": 3581, "ary": 3582, "ĠyaÅŁad": 3583, "Ġrol": 3584, "aÅŁa": 3585, "IL": 3586, "ĠsaÄŁlamak": 3587, "rans": 3588, "ĠhÃ¼c": 3589, "Ġhukuka": 3590, "ĠÃ¶ncelik": 3591, "tandart": 3592, "Ġyoktur": 3593, "ĠhÃ¼kÃ¼mler": 3594, ".'": 3595, "ĠyaptÄ±k": 3596, "ĠBÃ¶yle": 3597, "Ġzam": 3598, "ĠiÅŁe": 3599, "Ġvaz": 3600, "ĠsÄ±f": 3601, ">M": 3602, "aÅŁtÄ±rma": 3603, "ĠÅŁikayet": 3604, "^{": 3605, "ĠkarÅŁÄ±laÅŁ": 3606, "Ġolumsuz": 3607, "AÅŀ": 3608, "ud": 3609, "ĠmÃ¼k": 3610, "ĠMehmet": 3611, ".e": 3612, "ĠSosyal": 3613, "ĠBah": 3614, "ĠSÃ¼r": 3615, "elendir": 3616, "Ġresmi": 3617, "ĠalanÄ±": 3618, "ĠzamanaÅŁ": 3619, "Ġfes": 3620, "mÄ±ÅŁtÄ±": 3621, "dek": 3622, ".)": 3623, "ĠanÄ±lan": 3624, "Ã¼me": 3625, "ement": 3626, "uvvet": 3627, "Temyiz": 3628, "mekte": 3629, "Ġonay": 3630, "88": 3631, "lenme": 3632, "aten": 3633, "ustafa": 3634, "eral": 3635, "Ġdelillere": 3636, "landÄ±": 3637, "Ġbilim": 3638, "Ġistiyor": 3639, "Ġtoplanan": 3640, "ulh": 3641, "Ġgenellikle": 3642, "frac": 3643, "ĠAÄŁÄ±r": 3644, "ĠkÃ¶tÃ¼": 3645, "ĠdilekÃ§esinin": 3646, "ebek": 3647, "Ġmesaj": 3648, "lÄ±ÄŁÄ±na": 3649, "ĠTer": 3650, "ĠHakk": 3651, "isindeki": 3652, "ĠgÃ¼Ã§lÃ¼": 3653, "Ġcid": 3654, "Ä°Åŀ": 3655, "Ġkelim": 3656, "zu": 3657, "inize": 3658, "Ġtedavi": 3659, "ĠolmasÄ±na": 3660, "ĠistemiÅŁtir": 3661, "ĠvÃ¼": 3662, "ĠolmuÅŁtur": 3663, "ku": 3664, "ĠgerekÃ§esiyle": 3665, "engin": 3666, "IR": 3667, "Ġplatform": 3668, "Ġsahiptir": 3669, "ĠyabancÄ±": 3670, "Ġsol": 3671, "Ġah": 3672, "Ġdon": 3673, "Ġsizin": 3674, "ĠbulunmasÄ±": 3675, "ĠHat": 3676, "ĠParti": 3677, "Ġicra": 3678, "aket": 3679, "Ġbelirterek": 3680, "Ġister": 3681, "ĠTh": 3682, ">B": 3683, "ĠMayÄ±s": 3684, "ĠdeÄŁeri": 3685, "ĠhatÄ±r": 3686, "ĠmÃ¼l": 3687, "UMK": 3688, "Ã©": 3689, "ĠniteliÄŁ": 3690, "Ã¶v": 3691, "izyon": 3692, "61": 3693, "ami": 3694, "lif": 3695, "ise": 3696, "Ġserbest": 3697, "ĠkararÄ±na": 3698, "ĠII": 3699, "ĠÅŁÃ¶yle": 3700, "DE": 3701, "gat": 3702, "ĠkapsamÄ±na": 3703, "Ġhaline": 3704, "manÄ±": 3705, "Ġteknoloj": 3706, "Ġdef": 3707, "iri": 3708, "ai": 3709, "Ãĸz": 3710, "ĠProf": 3711, "ĠÃ¼cretsiz": 3712, "Ġsez": 3713, "Ġbes": 3714, "LE": 3715, "Ġyararlan": 3716, "ord": 3717, "Ġbayan": 3718, "Ġbet": 3719, "olog": 3720, "64": 3721, "Ġarama": 3722, "yÄ±l": 3723, "Or": 3724, "Ġbasit": 3725, "Ġmedya": 3726, "Ġham": 3727, "ĠÃ§ocuÄŁ": 3728, "Ġtutar": 3729, "%</": 3730, ":**": 3731, "Ġokunup": 3732, "Ġtas": 3733, "asÄ±yla": 3734, "Ġnet": 3735, "Ġgiz": 3736, "Yar": 3737, "ĠaldÄ±": 3738, "xt": 3739, "Ġkarak": 3740, "Ġolabil": 3741, "ĠÃľr": 3742, "Ġzorunda": 3743, "ĠBaÅŁsavc": 3744, "izasyon": 3745, ".Åŀ": 3746, "larca": 3747, "ĠoranÄ±nda": 3748, "ĠCh": 3749, "Ġdolar": 3750, "ilendir": 3751, "ive": 3752, "Ġverir": 3753, "ĠayÄ±r": 3754, "Ä±lÄ±p": 3755, "ĠREDD": 3756, "Ġyandan": 3757, "Ġx": 3758, "alli": 3759, "larÄ±ndaki": 3760, "ĠyaptÄ±": 3761, "ĠgÃ¶rÃ¼lmeyen": 3762, "sed": 3763, "ĠAlman": 3764, "lÄ±ÄŁa": 3765, "Ġettik": 3766, "Ġkayn": 3767, "Ġno": 3768, "ĠDen": 3769, "Ġbend": 3770, "Dosyadaki": 3771, "ĠTemmuz": 3772, "Ġann": 3773, "lediÄŁi": 3774, "ach": 3775, "Ġsaptan": 3776, "ĠiÅŁyer": 3777, "ĠÃ¼zerindeki": 3778, "ĠhastalÄ±k": 3779, "ener": 3780, "ĠnumarasÄ±": 3781, "iden": 3782, "ĠyansÄ±": 3783, "ĠÃ¶nÃ¼nde": 3784, "ksiyon": 3785, "ĠBank": 3786, "ĠHizmet": 3787, "ew": 3788, "ĠbaÅŁÄ±na": 3789, "Ġbec": 3790, "Ġgiy": 3791, "Ġbulunmayan": 3792, "Ġolanak": 3793, "ĠHan": 3794, "GÃ¼n": 3795, "ĠSt": 3796, "Ðµ": 3797, "ure": 3798, "Ġyeri": 3799, "Ġzorunlu": 3800, "Ġidar": 3801, "Ġibar": 3802, "ĠverildiÄŁi": 3803, "geÃ§": 3804, "ĠdoÄŁrudan": 3805, "Ġverdi": 3806, "âĢĿ,": 3807, "ĠyerleÅŁ": 3808, "ĠYaÅŁ": 3809, "ĠSu": 3810, "lÄ±kla": 3811, "orex": 3812, "ĠÃ¶lÃ¼m": 3813, "Ġsayf": 3814, "ebilecek": 3815, "ĠDairesine": 3816, "ektÃ¶r": 3817, "ĠkardeÅŁ": 3818, "ĠEÄŁer": 3819, "Ġitibarla": 3820, "ĠMad": 3821, "ina": 3822, "ĠBul": 3823, "lÃ¼m": 3824, "Ġolmaya": 3825, "Ġbana": 3826, "ĠKat": 3827, "ĠkalÄ±": 3828, "bah": 3829, "eÅŁil": 3830, "Ã¼ph": 3831, "ĠKor": 3832, "ĠEylÃ¼l": 3833, "ĠkÄ±sÄ±m": 3834, "Ġlis": 3835, "Ġyerde": 3836, "ĠbaÅŁkan": 3837, "ĠSo": 3838, "Ġbize": 3839, "etik": 3840, "Ġolunan": 3841, "ĠMal": 3842, "gar": 3843, "Ä±rsÄ±zlÄ±k": 3844, "Ġtay": 3845, "eksiyon": 3846, "ĠOcak": 3847, "Ġmir": 3848, "Ġwas": 3849, "iversit": 3850, "Ġgerekiyor": 3851, "Ã¢h": 3852, "ĠBor": 3853, "ĠgÃ¶steren": 3854, "mit": 3855, "lÄ±ÄŁÄ±nÄ±n": 3856, "Ġmakin": 3857, "ĠDur": 3858, "ĠHUMK": 3859, "ĠÃ§Ä±ktÄ±": 3860, "ĠgÃ¶rÃ¼lmektedir": 3861, ".maddesi": 3862, "ence": 3863, "ĠbaÅŁvurunun": 3864, "ĠÃ¶nemlidir": 3865, "Ä±za": 3866, "undaki": 3867, "Ġmaliyet": 3868, "ĠTicaret": 3869, "ĠkonuÅŁtu": 3870, "gulama": 3871, "Ġetmektedir": 3872, "Ġkorun": 3873, "Ġmobil": 3874, "Ġemek": 3875, ":Asliye": 3876, "Ġsorumlu": 3877, "ĠalÄ±nmasÄ±na": 3878, "dÃ¼k": 3879, "Ġevrak": 3880, "'nda": 3881, "87": 3882, "Ġettir": 3883, "denin": 3884, "Ġbab": 3885, "Ġbilgisayar": 3886, "lacak": 3887, "ĠtanÄ±k": 3888, "ĠMes": 3889, "Ġnormal": 3890, "ĠÃ¼lke": 3891, "Ġtesis": 3892, "ĠnÃ¼f": 3893, "ĠKasÄ±m": 3894, "AD": 3895, "ĠeÅŁit": 3896, "Ġtoplu": 3897, "ĠparÃ§a": 3898, "Ġilan": 3899, "Ġenerji": 3900, "ÃľÅŀ": 3901, "ĠÄ°nsan": 3902, "ĠÃĩocuk": 3903, "ĠÅŁar": 3904, "Ġhayvan": 3905, "SanÄ±k": 3906, "cÄ±lar": 3907, "gili": 3908, "Ġoku": 3909, "iyatÄ±": 3910, "ĠAynÄ±": 3911, "eyin": 3912, "gesi": 3913, "Ġkonut": 3914, "ĠKom": 3915, "ĠiÅŁlen": 3916, "Ġtemin": 3917, "Ġkey": 3918, "dikleri": 3919, "ĠsonrasÄ±nda": 3920, "ĠGer": 3921, "âĢĻe": 3922, "±ma": 3923, "Ġkov": 3924, "ĠÃ¶ngÃ¶rÃ¼len": 3925, "Ä±ma": 3926, "Ġfayd": 3927, "ĠdÃ¼ÅŁÃ¼r": 3928, "Ġtehlik": 3929, "ĠØ§ÙĦ": 3930, "ĠBit": 3931, "ĠNisan": 3932, "<sup": 3933, "EB": 3934, "ations": 3935, "ĠiÅŁle": 3936, "ĠiÃ§eren": 3937, "Ġistemine": 3938, "Ġelektrik": 3939, "amaya": 3940, "ell": 3941, "Ġmis": 3942, "eyn": 3943, "Ġef": 3944, "ĠTemyiz": 3945, "Ġkonum": 3946, "Ġesn": 3947, "Ġnedenleri": 3948, "ĠDiÄŁer": 3949, "..Ċ": 3950, "Ġbulundur": 3951, "iddet": 3952, "itesi": 3953, "Ġpop": 3954, "elerden": 3955, "Ä±ÄŁa": 3956, "vel": 3957, "ĠhÃ¼kmed": 3958, "Ġetme": 3959, "Ġdeste": 3960, "tÄ±lÄ±": 3961, "ĠtÃ¼rÃ¼": 3962, "ĠÃ¼ye": 3963, "150": 3964, "ĠarttÄ±r": 3965, "ĠSpor": 3966, "ical": 3967, "edim": 3968, "Ġkarakter": 3969, "-S": 3970, "Her": 3971, "ĠPoli": 3972, "Ã¼km": 3973, "Tablo": 3974, "bin": 3975, "amet": 3976, "ĠolmuÅŁ": 3977, "ĠakÄ±l": 3978, "elerle": 3979, "ĠBar": 3980, "ĠAf": 3981, "ĠyÃ¼zden": 3982, "±yla": 3983, "Ä±yla": 3984, "tis": 3985, "ĠarasÄ±": 3986, "Ġdiren": 3987, "OL": 3988, "Ġpersonel": 3989, ">A": 3990, "dÄ±z": 3991, "ĠÃ¶zellikleri": 3992, "Ġfinans": 3993, "ĠMustafa": 3994, "Ġhik": 3995, "Ġmar": 3996, "ĠalanÄ±nda": 3997, "Ġsabit": 3998, "ĠiÅŁlemi": 3999, "ĠnumaralÄ±": 4000, ".C": 4001, "ceÄŁ": 4002, "ĠSor": 4003, "emen": 4004, "ĠEf": 4005, "Ã¼ndeki": 4006, "ĠgÃ¶revi": 4007, "Ġverilmesine": 4008, "Ġhizmeti": 4009, "ĠTak": 4010, "ĠbulunmuÅŁtur": 4011, "Ġdis": 4012, "Ġiadesine": 4013, "ĠgÃ¶nderilmesine": 4014, "Ġvergi": 4015, "ĠÄ°li": 4016, "Ġetkisi": 4017, "Ġhastan": 4018, "ĠmiktarÄ±": 4019, "ĠiÃ§erik": 4020, "ĠHaziran": 4021, "ĠAydÄ±n": 4022, "Ġtahs": 4023, "AZ": 4024, "ĠÃĩok": 4025, "Ġadli": 4026, "izel": 4027, "dÄ±ÄŁÄ±mÄ±z": 4028, "Ġlo": 4029, ">(": 4030, "ĠyapÄ±ldÄ±ÄŁÄ±": 4031, "ĠaÃ§Ä±l": 4032, "ĠÃ¼niversit": 4033, "Ġgeliyor": 4034, "ĠFak": 4035, "Ġavan": 4036, "Ð°": 4037, "ĠEkim": 4038, "OS": 4039, "ĠdoÄŁrult": 4040, "alandÄ±r": 4041, "ĠyayÄ±mlanarak": 4042, "ĠkuÅŁ": 4043, "Ġortadan": 4044, "ĠGir": 4045, "jen": 4046, "Ġdu": 4047, "Ġeklen": 4048, "ĠSistem": 4049, "ova": 4050, "ĠsayÄ±da": 4051, "ĠiÃ§erisindeki": 4052, "Ã¼yle": 4053, "taki": 4054, "ĠOsmanlÄ±": 4055, "Ä°LER": 4056, "mediÄŁinden": 4057, "erler": 4058, "ond": 4059, "ĠgÃ¶rÃ¼lmemiÅŁtir": 4060, "liÄŁin": 4061, "ĠÃ¶ncesi": 4062, "ear": 4063, "anan": 4064, "oman": 4065, "Ġdemek": 4066, "Øª": 4067, "Ġyum": 4068, "ĠMAHKEMESÄ°": 4069, "ĠMec": 4070, "ĠMerkezi": 4071, "ĠÃĩev": 4072, "ND": 4073, "ĠTÃ¼m": 4074, "âĢĻun": 4075, "ĠbaÅŁlangÄ±": 4076, "Ġvideo": 4077, "Ġcasino": 4078, "Ġkart": 4079, "adaki": 4080, "ĠÄ°dar": 4081, "Ġzengin": 4082, "ÙĲ": 4083, ".K": 4084, "-b": 4085, "Ġfizik": 4086, "ger": 4087, "malar": 4088, "icari": 4089, "int": 4090, "ĠFakat": 4091, "emal": 4092, "eyle": 4093, "Ġkullanarak": 4094, "anÄ±yor": 4095, "Ġdavada": 4096, "strong": 4097, "tak": 4098, "ĠyÃ¶netic": 4099, "ous": 4100, "liÄŁine": 4101, "ĠyÃ¼rÃ¼rlÃ¼kte": 4102, "ĠalÄ±r": 4103, "81": 4104, "Ġkayd": 4105, "Ġavantaj": 4106, "Ġciddi": 4107, "ĠDo": 4108, "daÄŁ": 4109, "Ġken": 4110, "ilecek": 4111, "Ä±nÄ±za": 4112, "ĠkiÅŁisel": 4113, "72": 4114, "Ġgece": 4115, "Ġmemnun": 4116, "oun": 4117, "IM": 4118, "Ġtarz": 4119, "ĠSaÄŁlÄ±k": 4120, "ĠiÃ§ine": 4121, "±f": 4122, "Ä±f": 4123, "Ġfakat": 4124, "ĠsuÃ§un": 4125, "ĠTan": 4126, "ill": 4127, "Ġob": 4128, "ulup": 4129, "ĠÃ¶rn": 4130, "lerce": 4131, "ĠDairesinin": 4132, "ies": 4133, "ĠbaÄŁÄ±msÄ±z": 4134, "Ä±nca": 4135, "86": 4136, "ĠdeÄŁerlendirme": 4137, "ĠilaÃ§": 4138, "Ġavukat": 4139, "ĠÙĪ": 4140, "Ġbelirlenen": 4141, "âĢĺ": 4142, "Ä°LMESÄ°NE": 4143, "lamanÄ±n": 4144, "ia": 4145, "ĠkazandÄ±r": 4146, "Ġfrom": 4147, "ĠDA": 4148, "ĠoybirliÄŁi": 4149, "uzey": 4150, "hend": 4151, "Ben": 4152, "ĠoÄŁ": 4153, "-K": 4154, "Ġyoksun": 4155, "lamaz": 4156, "ĠsaÄŁlayan": 4157, "ke": 4158, "Ġnes": 4159, "ĠalÄ±m": 4160, "ras": 4161, "ĠmÃ¼vekkil": 4162, "ĠPer": 4163, "Ġvekalet": 4164, "say": 4165, "enÃ¼z": 4166, "adi": 4167, "larÄ±nÄ±zÄ±": 4168, "108": 4169, "Ġinsanlar": 4170, "Ġkendini": 4171, "inal": 4172, "ĠolduÄŁuna": 4173, "ĠBaÄŁ": 4174, "Ġbulundu": 4175, "Ġmanevi": 4176, "ĠgÃ¶rÃ¼ntÃ¼": 4177, "Ġmutlak": 4178, "ĠAralÄ±k": 4179, "ĠcÃ¼m": 4180, "ĠeÄŁit": 4181, "ĠgÃ¶revli": 4182, "Ġsonraki": 4183, "ĠtarÄ±m": 4184, "'l": 4185, "Ġthis": 4186, "'Ä": 4187, "ilebilir": 4188, "Ġkoru": 4189, "ĠbaÅŁlayan": 4190, "ĠÃ§arp": 4191, "ĠKÄ±r": 4192, "Ġalanda": 4193, "ĠÃ¶ÄŁretim": 4194, "ĠinsanlarÄ±n": 4195, "Ġkaliteli": 4196, "ĠÃ¶lÃ§Ã¼": 4197, "ĠdoÄŁrultusunda": 4198, "'Ä±": 4199, "atÃ¶r": 4200, "Ġetmesi": 4201, "ĠÃ¶zgÃ¼r": 4202, "Ġbirim": 4203, "Ġincelemesi": 4204, "ĠfÄ±rsat": 4205, "yap": 4206, "ezi": 4207, "Ġgay": 4208, "ĠkaÄŁÄ±tlar": 4209, "and": 4210, "Ġyere": 4211, "**,": 4212, "-p": 4213, "ĠhÃ¼kÃ¼mleri": 4214, "Ã¶ÄŁr": 4215, "ĠÃ§alÄ±ÅŁmalarÄ±": 4216, "iir": 4217, "The": 4218, "ĠyapÄ±la": 4219, "Ġescort": 4220, "Ġmarka": 4221, "Ak": 4222, "sizin": 4223, "ĠBuna": 4224, "Ġuygula": 4225, "Ġduyur": 4226, "Ġolayda": 4227, "Ġfonksiyon": 4228, "amak": 4229, "ĠaykÄ±rÄ±lÄ±k": 4230, "ĠDÃ¼z": 4231, "text": 4232, "ĠolduÄŁunun": 4233, "Pro": 4234, "Ġsh": 4235, "ĠiliÅŁki": 4236, "baÅŁkanÄ±": 4237, "arlar": 4238, "ĠsaÄŁla": 4239, "ilt": 4240, "Ġolmaz": 4241, "ĠsÄ±nav": 4242, "ĠÃ§at": 4243, "Ġolumlu": 4244, "lanmÄ±ÅŁtÄ±r": 4245, "ĠKit": 4246, "192": 4247, "Ġtehdit": 4248, "Ġbank": 4249, "Ġdinlendikten": 4250, "Ä±mÄ±za": 4251, "Ġharit": 4252, "ĠForex": 4253, "ĠaracÄ±lÄ±ÄŁÄ±": 4254, "aÄŁa": 4255, "dÄ±ÄŁÄ±nÄ±z": 4256, "esyon": 4257, ".S": 4258, "Ġsair": 4259, "Ġmiras": 4260, "gr": 4261, "Ġmec": 4262, "ĠhÃ¢l": 4263, "sit": 4264, "esiz": 4265, "YapÄ±lan": 4266, "aka": 4267, "Ġtakdirinde": 4268, "we": 4269, "ĠYardÄ±m": 4270, "Ġbelirlenmesi": 4271, "Ġona": 4272, "amÄ": 4273, "ĠiÅŁÃ§i": 4274, "Ġekran": 4275, "Ġpan": 4276, "amÄ±": 4277, "ĠuluslararasÄ±": 4278, "ĠgerektiÄŁ": 4279, "sÄ±zÄ±n": 4280, "Ġfer": 4281, "321": 4282, "Ġsona": 4283, "ĠMilli": 4284, "ĠmÃ¼dafiinin": 4285, "Ek": 4286, "izelge": 4287, "ĠtebliÄŁnam": 4288, "ĠsoruÅŁturma": 4289, "ĠSel": 4290, "ĠyaygÄ±n": 4291, "ĠBer": 4292, "ĠÃ§Ã¼nkÃ¼": 4293, "Ġmotor": 4294, "dasÄ±": 4295, "ĠhoÅŁ": 4296, "ĠSal": 4297, "ĠmÃ¼ÅŁteri": 4298, "ĠkatÄ±lÄ±m": 4299, "so": 4300, "Ġderec": 4301, "ĠÃĸzellikle": 4302, "Ġmeslek": 4303, "__": 4304, "ĠgÃ¼venilir": 4305, "lanÄ±r": 4306, "ĠYukarÄ±da": 4307, "ĠMod": 4308, "lor": 4309, "191": 4310, "ĠdavalÄ±lar": 4311, "Ġbedelinin": 4312, "Ġyoluyla": 4313, "194": 4314, "ind": 4315, "duc": 4316, "ĠAnayasa": 4317, "ĠÅŁÃ¼ph": 4318, "Ø¨": 4319, "Ġnetic": 4320, "Ġetkinlik": 4321, "ĠyaÅŁayan": 4322, "irÃ¼s": 4323, "ĠolduklarÄ±": 4324, "sas": 4325, "stit": 4326, "Ġnedir": 4327, "ĠÃ¶ÄŁ": 4328, "Ġstandart": 4329, "tul": 4330, "ĠAÅŁ": 4331, "ight": 4332, "Ä±rÄ": 4333, "ME": 4334, "emiÅŁ": 4335, "Ä±rÄ±": 4336, "inÃ§": 4337, "Ġsem": 4338, "ace": 4339, "ĠhÃ¼kme": 4340, "bal": 4341, "Ġkims": 4342, "ĠiÃ§i": 4343, "ĠGerek": 4344, "ĠeleÅŁtir": 4345, "ĠtÃ¼ket": 4346, "Ġtatil": 4347, "IÅŀ": 4348, "DAVA": 4349, "ron": 4350, "tiÄŁimiz": 4351, "ĠÄ°slam": 4352, "ĠmÃ¼dÃ¼r": 4353, "ĠaÃ§Ä": 4354, "gam": 4355, "coin": 4356, "ĠaÃ§Ä±": 4357, "ĠsuÃ§a": 4358, "ĠÃ¶nÃ¼ne": 4359, "lendirme": 4360, "Ġhatta": 4361, "Ġaile": 4362, "ĠyapÄ±lmÄ±ÅŁ": 4363, "Boz": 4364, "ediy": 4365, "ĠdavasÄ±": 4366, "Ġesastan": 4367, "95": 4368, "ĠgÃ¶zetilm": 4369, "ularak": 4370, "Ġmaddenin": 4371, "ĠdÃ¼zenleme": 4372, "Ġayak": 4373, "quad": 4374, "BÃ¶l": 4375, "ĠsÃ¼rÃ¼k": 4376, "ĠkiÅŁilerin": 4377, "ink": 4378, "ĠHakimi": 4379, "Ã¼mÃ¼zde": 4380, "ĠyÃ¼zey": 4381, "ediÄŁini": 4382, "Ġreklam": 4383, "-M": 4384, "Ġreddini": 4385, "Ġnci": 4386, "abilmek": 4387, "ekili": 4388, "acaÄŁÄ±z": 4389, "Ġotel": 4390, "120": 4391, "Ġcep": 4392, "ĠYak": 4393, ".D": 4394, "Ġperformans": 4395, "97": 4396, "duktan": 4397, "âĢĻye": 4398, "ĠyararÄ±na": 4399, "Ġdeniz": 4400, "Ġkanal": 4401, "ĠyalnÄ±zca": 4402, "meniz": 4403, ".\"Ċ": 4404, "amsun": 4405, "Ä±mda": 4406, "esyonel": 4407, "ĠYasa": 4408, "Ġtakdirine": 4409, "ĠbulunmadÄ±ÄŁÄ±ndan": 4410, "ĠsaÄŁlÄ±klÄ±": 4411, "Ġsigort": 4412, "Ġverme": 4413, ">G": 4414, "ĠgÃ¶rÃ¼nt": 4415, "ĠMahkemesine": 4416, "ĠAraÅŁtÄ±rma": 4417, "ĠyÃ¼kÃ¼m": 4418, "ĠÅŁimdi": 4419, "193": 4420, "$$Ċ": 4421, "ĠyÃ¼klet": 4422, "98": 4423, "Ġgar": 4424, "Ġmilyar": 4425, "ene": 4426, "HÃ¼kÃ¼m": 4427, "stos": 4428, "ĠhazÄ±rlanan": 4429, "mamasÄ±": 4430, "Ġderin": 4431, "ĠAhmet": 4432, "ĠettiÄŁ": 4433, "niyet": 4434, "Ġaktif": 4435, "Ġyaparak": 4436, "ÃľZ": 4437, "ĠkurulmasÄ±": 4438, "ĠMak": 4439, "300": 4440, "ĠadlÄ±": 4441, "Ġbeni": 4442, "ĠÅŁiddet": 4443, "ĠcezasÄ±nÄ±n": 4444, "Ġmalzem": 4445, "In": 4446, "ĠÃ¶ÄŁrenciler": 4447, "âĢĻden": 4448, "lardaki": 4449, "Ġberaat": 4450, "ĠÃ¶ne": 4451, "ĠfÄ±krasÄ±nÄ±n": 4452, "ĠyanÄ±t": 4453, "ĠuyuÅŁmazlÄ±k": 4454, "Ġpolis": 4455, "ĠoluÅŁtu": 4456, "ĠÄ°liÅŁ": 4457, "Ġgerektirici": 4458, "Ġmahkemenin": 4459, "Ġihl": 4460, "ĠKamu": 4461, "bit": 4462, "www": 4463, "Ġfutbol": 4464, "ĠMahkumiyet": 4465, "eder": 4466, "ĠKÄ": 4467, "Ġsezon": 4468, "atÃ¼rk": 4469, "unlarÄ±": 4470, "ĠKÄ±": 4471, "ĠfarklÄ±lÄ±k": 4472, "ĠsaldÄ±rÄ": 4473, "ĠsaldÄ±rÄ±": 4474, "Ġpiyasa": 4475, "osta": 4476, "ÄŁustos": 4477, "ĠFrans": 4478, "Ġincelemede": 4479, "ĠSanÄ±k": 4480, "ĠLis": 4481, "ĠÃ§alÄ±ÅŁmalar": 4482, "Ġsiyasi": 4483, "Ġyasa": 4484, ">C": 4485, "ekim": 4486, "tÄ±ÄŁÄ±mÄ±z": 4487, "dro": 4488, "ĠdavacÄ±ya": 4489, "ĠYaz": 4490, "ĠeÄŁlen": 4491, "Ġneler": 4492, "Ġilgi": 4493, "ĠgÃ¶tÃ¼r": 4494, "adem": 4495, "Ġfikir": 4496, "Ġedeb": 4497, "ĠkazanÃ§": 4498, "ĠDeniz": 4499, "ft": 4500, "ĠBazÄ±": 4501, "bur": 4502, "ĠalÄ±yor": 4503, "ĠyaÅŁanan": 4504, "ĠREDDÄ°NE": 4505, "ĠHÃ¼kÃ¼m": 4506, "luluÄŁu": 4507, "ĠÅŀubat": 4508, "ĠharcÄ±n": 4509, "els": 4510, "ack": 4511, "Â±": 4512, "ĠbaÅŁÄ±nda": 4513, "ĠBoz": 4514, "fak": 4515, "Ġdeneyim": 4516, "ĠYani": 4517, "liÄŁe": 4518, "leyici": 4519, "ĠgÃ¶rmek": 4520, "ĠbaÅŁk": 4521, "Ġasker": 4522, "ĠhaksÄ±z": 4523, "ĠDÃ¶n": 4524, "ĠdÃ¼ÅŁÃ¼nÃ¼yor": 4525, "ĠettiÄŁini": 4526, "tions": 4527, "ĠolmaktadÄ±r": 4528, "Ġazalt": 4529, "Ġmerak": 4530, "Ġdoktor": 4531, "ĠÃ§ap": 4532, "Ġum": 4533, "Ġtutul": 4534, "Ġanlamda": 4535, "ĠkararÄ±nda": 4536, "tay": 4537, "Ġenf": 4538, "Ġprot": 4539, "ĠgÃ¶rÃ¼ÅŁÃ¼ldÃ¼": 4540, "ĠKÃ¶y": 4541, "eÅŁik": 4542, "ÃľL": 4543, "140": 4544, "Ġkuvvet": 4545, "Ã¼nÃ¼z": 4546, "ĠgerekÃ§eye": 4547, "ress": 4548, "ĠaracÄ±": 4549, "OK": 4550, "ĠmÃ¼s": 4551, "uzur": 4552, "ĠHakkÄ±nda": 4553, "tere": 4554, "ĠgerekÃ§e": 4555, "ĠRusya": 4556, "imizde": 4557, "Ġtutuk": 4558, ">H": 4559, "ĠaÅŁamasÄ±nda": 4560, "ĠmÃ¼lk": 4561, ".H": 4562, "Ġlider": 4563, "ĠgÃ¶ren": 4564, "ĠYol": 4565, "ĠTÃľR": 4566, "labilir": 4567, "ĠtanÄ±t": 4568, "imde": 4569, "ĠdÃ¼nyanÄ±n": 4570, "Ġaraya": 4571, "ĠgiriÅŁim": 4572, "mayacak": 4573, "ĠgÃ¼c": 4574, "ze": 4575, "Ġticari": 4576, "ĠRo": 4577, "Ġsonucuna": 4578, "ĠYÃ¶net": 4579, "ĠteÅŁkil": 4580, "ÙĴ": 4581, "ĠMahall": 4582, "Ġmerkezi": 4583, ">Y": 4584, "dat": 4585, "ĠKÃ¼r": 4586, "ĠKÃ¼ltÃ¼r": 4587, "elerinden": 4588, "Ġtarif": 4589, "Ġaks": 4590, "ĠsÃ¶ylem": 4591, "Ġbilgileri": 4592, "yen": 4593, "abz": 4594, "Ġservis": 4595, "ĠateÅŁ": 4596, "ĠÄ°ngiliz": 4597, "Ġkararda": 4598, "Ġimkan": 4599, "abi": 4600, "ĠDeÄŁer": 4601, "Ġyana": 4602, "ys": 4603, "Ä°stanbul": 4604, "sÃ¼z": 4605, "miyor": 4606, "ĠayÄ±nda": 4607, "liÄŁinin": 4608, "ĠmÃ¼cadele": 4609, "mamÄ±ÅŁ": 4610, "Ġdokun": 4611, ">P": 4612, "Ġyurt": 4613, "fen": 4614, "Ġberi": 4615, "ĠsÄ±rada": 4616, "Ġdile": 4617, "icdan": 4618, "ĠdÃ¶k": 4619, "ĠkÃ¼r": 4620, "ĠDol": 4621, "ĠyapÄ±lÄ±r": 4622, "ĠÃĸrneÄŁin": 4623, "ĠBÃ¼yÃ¼kÅŁehir": 4624, "Ġdahi": 4625, "ĠsoÄŁ": 4626, "ĠdaÄŁÄ±t": 4627, "Ġeklenen": 4628, "Ġ(%": 4629, "ĠvardÄ±": 4630, "ĠDemir": 4631, "YA": 4632, "Ġalarak": 4633, "ĠdeÄŁerleri": 4634, "Ġdefa": 4635, ".A": 4636, "meni": 4637, "ĠdiÅŁ": 4638, "ated": 4639, "illi": 4640, "duÄŁunu": 4641, "ĠTel": 4642, "Ġmutlu": 4643, "ĠkullanÄ±mÄ±": 4644, "ner": 4645, "ĠgerektirmiÅŁ": 4646, "ipar": 4647, "Ġdost": 4648, "TAR": 4649, "Bur": 4650, "ĠÅŁer": 4651, "ISI": 4652, "ĠhÃ¼kÃ¼mlerin": 4653, "Ġuyar": 4654, "Ġdoldur": 4655, "leriniz": 4656, "Ġtalebinin": 4657, "Ġcomp": 4658, "ĠSev": 4659, "ilim": 4660, "ĠMer": 4661, "Ġarz": 4662, "ĠeÅŁya": 4663, "Ġodak": 4664, "ĠKadÄ±n": 4665, "ĠBakanÄ±": 4666, "ĠaslÄ±nda": 4667, "DÄ°": 4668, "Ã»m": 4669, "ĠmÃ¼cadel": 4670, ">F": 4671, "ĠAlan": 4672, "ÄŁÃ¼": 4673, "ruf": 4674, "Ġkork": 4675, "Ġhafif": 4676, "ĠPart": 4677, "ĠuygulamasÄ±": 4678, "Ġedilebilir": 4679, "ĠSonuÃ§": 4680, "Ġide": 4681, "ĠUsul": 4682, "Ġkadastro": 4683, "ĠzamanaÅŁÄ±mÄ±": 4684, "mÄ±zÄ±": 4685, "âĢĻdan": 4686, "Ġelem": 4687, "lerinizi": 4688, "Ä±lmak": 4689, "Ã¼lmÃ¼ÅŁ": 4690, "ĠMuhakemeleri": 4691, "ĠdÃ¶neminde": 4692, "Ġbal": 4693, "tiÄŁini": 4694, "US": 4695, "mail": 4696, "ĠNasÄ±l": 4697, "ĠÄ°ÅŁte": 4698, "Ġteklif": 4699, "ĠOL": 4700, "73": 4701, "Ġcinsel": 4702, "ĠkÄ±y": 4703, "ave": 4704, "Ġkaynaklanan": 4705, "ĠbÃ¶lÃ¼mÃ¼": 4706, "Ġbent": 4707, "isinden": 4708, "Ġcm": 4709, "ĠTarihi": 4710, "ĠalmaktadÄ±r": 4711, "cisi": 4712, "LERÄ°": 4713, "Ä±mÄ±n": 4714, "irken": 4715, "nÄ±n": 4716, "ĠSiz": 4717, "ĠhenÃ¼z": 4718, "Ġkum": 4719, "ĠsÃ¶yley": 4720, "ator": 4721, "71": 4722, "Ġkalk": 4723, "Ġkrit": 4724, "eng": 4725, "rit": 4726, "Ġpla": 4727, "atistik": 4728, "Ä±ÅŁtÄ±r": 4729, "102": 4730, "mamÄ±z": 4731, "ĠÃ§erÃ§evesinde": 4732, "ĠBirliÄŁi": 4733, "set": 4734, "ayla": 4735, "Ġhad": 4736, "ĠaltÄ±n": 4737, "ĠKARARI": 4738, "Ġpas": 4739, "Ġsebebiyle": 4740, "Ġkayded": 4741, "Ġtahmin": 4742, "ildiÄŁini": 4743, "EÄŁ": 4744, "arkÄ": 4745, "arkÄ±": 4746, "Ġlehine": 4747, "mesinden": 4748, "ase": 4749, "Ġsizi": 4750, "Ġnerede": 4751, "mÃ¼r": 4752, "kenin": 4753, "ĠiÅŁi": 4754, "Ġarada": 4755, "Ġsoy": 4756, "Ġdelillerle": 4757, "ĠAÄŁustos": 4758, "Ġdiyor": 4759, "Ġsim": 4760, "Ġiken": 4761, "ĠBurada": 4762, "Ġispat": 4763, "Ġaktiv": 4764, "Gen": 4765, "Ġbulunuyor": 4766, "ĠProj": 4767, "ÄŁan": 4768, "Mah": 4769, "ĠdeÄŁiÅŁim": 4770, "ĠBaÅŁkanlÄ±ÄŁÄ±": 4771, "ĠÃ¶ÄŁrencilerin": 4772, "ĠbÃ¶lge": 4773, "ther": 4774, "ĠÎ": 4775, "ĠbunlarÄ±n": 4776, "ĠvazgeÃ§": 4777, "Ġkullanmak": 4778, "ĠbirleÅŁ": 4779, "ĠTaÅŁ": 4780, "ĠyapÄ±yor": 4781, "Ġ$\\": 4782, "ĠgerÃ§ekten": 4783, "ĠAÃ§Ä±k": 4784, "ĠsanÄ±klar": 4785, "ĠDavacÄ±": 4786, "ĠÄ°Ã§in": 4787, "ĠÃ¶de": 4788, "rin": 4789, "ijital": 4790, "amÄ±z": 4791, "ĠKaz": 4792, "acaÄŁÄ±nÄ±": 4793, "Ġkamer": 4794, "rÃ¼b": 4795, "Ġsunul": 4796, "iyer": 4797, "etin": 4798, "ĠiÃ§indeki": 4799, "Ġayar": 4800, "ĠÃ§oÄŁu": 4801, "Ġkomp": 4802, "gor": 4803, "ĠanlamlÄ±": 4804, "ilmekle": 4805, "74": 4806, "siye": 4807, "Ġend": 4808, "Ġraporu": 4809, "Ġkendisini": 4810, "gari": 4811, ">,": 4812, "Ġdek": 4813, "EÄŀ": 4814, "}$": 4815, "ĠKÃ¶": 4816, "ĠÃ¼lkemiz": 4817, "76": 4818, "akip": 4819, "ĠSar": 4820, "ĠyerleÅŁtir": 4821, "ĠdolayÄ±sÄ±yla": 4822, "ĠtoplantÄ±": 4823, "Ġkaf": 4824, "ĠÃ¶ncelikle": 4825, "Ġaleyhine": 4826, "gal": 4827, "oog": 4828, "ĠyÄ±llarda": 4829, "stik": 4830, "YÄ°Z": 4831, "ÅŁem": 4832, "ĠÅŁirketin": 4833, "ĠgeliÅŁim": 4834, "ĠÙħ": 4835, "ĠyapmÄ±ÅŁ": 4836, ".B": 4837, "ĠGER": 4838, "Ġsel": 4839, "Ger": 4840, "279": 4841, "ĠÃ¶nlem": 4842, "hn": 4843, "Ġbelirten": 4844, "mayÄ±n": 4845, "ĠmÃ¼mkÃ¼ndÃ¼r": 4846, "ĠtaÅŁÄ±ma": 4847, "82": 4848, "ĠiÅŁlemleri": 4849, "altÄ±": 4850, "Ġokuy": 4851, "ĠÃ§evir": 4852, "cÄ±nÄ±n": 4853, "ĠGenÃ§": 4854, "ĠsÃ¼rÃ¼len": 4855, "uÅŁturucu": 4856, "inizde": 4857, "ĠSig": 4858, "uar": 4859, "Ġveri": 4860, "TAN": 4861, "ĠgeÃ§iÅŁ": 4862, "Ġvb": 4863, "ĠProgram": 4864, "Ä±lmaz": 4865, "lic": 4866, "Ġmemur": 4867, "ĠmeÅŁ": 4868, "ĠKim": 4869, "oper": 4870, "ĠpiÅŁ": 4871, "MAN": 4872, "ĠÃ¶zelliÄŁi": 4873, "anma": 4874, "Ġcam": 4875, "ĠAra": 4876, "Yeni": 4877, "ĠMÃ¼s": 4878, "Ġistih": 4879, "ĠmÃ¼dah": 4880, "uÄŁ": 4881, "evizyon": 4882, "maye": 4883, "book": 4884, "Ġsomut": 4885, "EMYÄ°Z": 4886, "les": 4887, "ĠÃ§oÄŁun": 4888, "Ġse": 4889, "ilin": 4890, "ĠbaÅŁvurusunun": 4891, "ĠÄ°k": 4892, "eceÄŁine": 4893, "Ġtakdirde": 4894, "oogle": 4895, "ĠSp": 4896, "spor": 4897, "ĠÃĩin": 4898, "Ġzaten": 4899, "ĠBÃ¶ylece": 4900, "arÄ±yla": 4901, "Ã§ak": 4902, "'yi": 4903, "ĠÃ¶zet": 4904, "ational": 4905, "bay": 4906, "ĠgÃ¶stermektedir": 4907, "ĠanlaÅŁÄ±ldÄ±ktan": 4908, "ĠkÄ±sÄ±t": 4909, "Ġyoluna": 4910, "Ġnitelikte": 4911, "Ġbilinen": 4912, "vik": 4913, "Â°": 4914, "Uy": 4915, "okrat": 4916, "ĠTe": 4917, "Ã¼lmesi": 4918, "Ã¶ÄŁretim": 4919, "luluÄŁ": 4920, "Ġpsik": 4921, "Ġmon": 4922, "Ġeg": 4923, "Ġolursa": 4924, "Ġnitelendir": 4925, "ĠÅŀirket": 4926, "Ġimk": 4927, "Ġaray": 4928, "Ġkampan": 4929, "UKUK": 4930, "Ã¼ya": 4931, "ĠdeÄŁerli": 4932, "urum": 4933, "96": 4934, "á¸": 4935, "Ġhizmetleri": 4936, "ĠHastan": 4937, "ĠHMK": 4938, "ĠkarÅŁÄ±laÅŁtÄ±r": 4939, "ĠkonuÅŁulup": 4940, "101": 4941, "ĠtanÄ±n": 4942, "ĠÃ¢": 4943, "ĠdÃ¶v": 4944, "ÅŁÄ±k": 4945, "ĠEur": 4946, "inizin": 4947, "ĠaÄŁr": 4948, "ĠGr": 4949, "Ä°s": 4950, "83": 4951, "ĠGÃĸR": 4952, "tansiy": 4953, "IK": 4954, "Ä°YE": 4955, "ĠaltÄ±": 4956, "ĠsonuÃ§larÄ±": 4957, "ilerden": 4958, "yst": 4959, "ĠcezalandÄ±r": 4960, "ĠnÃ¼fus": 4961, "Ġhuzur": 4962, "ĠsÃ¼rede": 4963, "omobil": 4964, "Ġrast": 4965, "ĠSeÃ§": 4966, "Ä°HÄ°": 4967, "Kay": 4968, "tey": 4969, "ĠsÃ¶ylen": 4970, "Ġuygulanan": 4971, "ĠonlarÄ±n": 4972, "Ġyapar": 4973, "memek": 4974, "Ġtarihleri": 4975, "iyan": 4976, "RA": 4977, "ullah": 4978, "ĠMÃ¼dÃ¼rÃ¼": 4979, "Ġbi": 4980, "bakan": 4981, "ĠyetiÅŁtir": 4982, "tÄ±sÄ±": 4983, "ĠÃ¶ÄŁrenci": 4984, "ĠQ": 4985, "ock": 4986, "ĠStr": 4987, "Ġyem": 4988, "Ġkullanma": 4989, "Ġlisans": 4990, "Ġfatur": 4991, "Ġkem": 4992, "ĠCHP": 4993, ">Åŀekil": 4994, "Ġta": 4995, "ĠÃ¼rÃ¼nleri": 4996, "vekili": 4997, "ĠbaÄŁlantÄ±": 4998, "ĠkapÄ": 4999, "ĠkapÄ±": 5000, "ĠÃ§al": 5001, "Ġkanaat": 5002, "ĠgÃ¼venli": 5003, "ĠbeÄŁ": 5004, "memiÅŁ": 5005, "Ġnef": 5006, "ĠmÃ¼zik": 5007, "ĠDeÄŁiÅŁ": 5008, "Ġwhich": 5009, "ĠsÃ¼t": 5010, "Ġsizlere": 5011, "ĠgÃ¶sterir": 5012, "Ġaf": 5013, "Ø³": 5014, "Ġindirim": 5015, "ĠÃ§Ä±kÄ±ÅŁ": 5016, "dal": 5017, "ayÄ±f": 5018, "ĠkÄ±smÄ": 5019, "ĠkÄ±smÄ±": 5020, "Ġsiteleri": 5021, "hendis": 5022, "ĠsÃ¼reci": 5023, "ĠØ¨": 5024, "Ġrak": 5025, "Ġonan": 5026, "Ġiade": 5027, "93": 5028, "lÄ±klar": 5029, "edikleri": 5030, "ĠgÃ¶zetilerek": 5031, "Ãĸn": 5032, "Ġmutlaka": 5033, "ĠtaraflarÄ±n": 5034, "erv": 5035, "ĠyavaÅŁ": 5036, "Ġgaz": 5037, "artesi": 5038, "Ġmuhal": 5039, "84": 5040, "Ġoperasyon": 5041, "bilecek": 5042, "ĠGazi": 5043, "ĠdanÄ±ÅŁ": 5044, "âĢĻya": 5045, "III": 5046, "Ġkapas": 5047, "emmel": 5048, "ĠBaÅŁsavcÄ±lÄ±ÄŁ": 5049, "ĠyÃ¶nleri": 5050, "Ġpaket": 5051, "Top": 5052, "ĠanlamÄ±na": 5053, "Ġco": 5054, "atÄ±n": 5055, "ĠsÃ¶zleÅŁmesi": 5056, "Ġfil": 5057, "onya": 5058, "Ġhayal": 5059, "ire": 5060, "Ġ...Ċ": 5061, "mos": 5062, "ivil": 5063, "ipariÅŁ": 5064, "Ġht": 5065, "ĠMed": 5066, "Ġhakim": 5067, "Ġmesaf": 5068, "Ġsorumluluk": 5069, "ĠKurulunun": 5070, "Ġtemyize": 5071, "Ġwere": 5072, "Ġopsiyon": 5073, "92": 5074, "Ġyaralan": 5075, "Ġiyil": 5076, "ĠTÃ¼rkÃ§e": 5077, "ĠkÄ±l": 5078, "ĠinÅŁaat": 5079, "Ä±sÄ±r": 5080, "ĠbuluÅŁ": 5081, "ĠÃ¶dÃ¼l": 5082, "Ġ....": 5083, "Ã¼lebilir": 5084, "oca": 5085, "ildiÄŁ": 5086, "Ġonline": 5087, "ĠkalÄ±n": 5088, "ĠRe": 5089, "ĠbirleÅŁtir": 5090, "YukarÄ±da": 5091, "mÄ±yor": 5092, "larÄ±mÄ±zÄ±n": 5093, "Ġtasarruf": 5094, "ĠdÃ¶nÃ¼ÅŁtÃ¼r": 5095, "94": 5096, "zÄ±m": 5097, "Ġheyec": 5098, "iÃ§ek": 5099, "Ã¼per": 5100, "ding": 5101, "pt": 5102, "Ġyasak": 5103, "Ġbulunur": 5104, "pek": 5105, "Ġstu": 5106, "Ġkarara": 5107, "Ġherkes": 5108, "Ġdavet": 5109, "ilmesini": 5110, "Ġinc": 5111, "Ġmodern": 5112, "bon": 5113, ".M": 5114, "Ancak": 5115, "ĠakÅŁam": 5116, "Ã¼ny": 5117, "Ġtoplumsal": 5118, "layarak": 5119, "ahim": 5120, "Ġrad": 5121, "ĠbÃ¶lÃ¼mÃ¼nde": 5122, "OÄŀ": 5123, "Ġduygu": 5124, "250": 5125, "ĠKemal": 5126, "ĠCon": 5127, "ĠbaskÄ±": 5128, "ism": 5129, "ame": 5130, "Ġbirisi": 5131, "Ġuc": 5132, "ĠAbd": 5133, "Ġyada": 5134, "ĠKÄ±z": 5135, "ĠFakÃ¼lt": 5136, "Ġbekliyor": 5137, "dÄ±klarÄ±nÄ±": 5138, "ĠÃ§Ä±kart": 5139, "ĠkullanÄ±lmasÄ±": 5140, "enler": 5141, "Ġtransfer": 5142, "eceÄŁiz": 5143, "Ġhttp": 5144, "ban": 5145, "atik": 5146, "ĠYÃ¼z": 5147, "ĠtecrÃ¼b": 5148, "liÄŁinde": 5149, "red": 5150, "91": 5151, "Ġbeyaz": 5152, "ĠborÃ§lu": 5153, "ĠbaÅŁta": 5154, "-B": 5155, "ĠTeb": 5156, "talÄ±k": 5157, "ĠBilg": 5158, "Ãĩizelge": 5159, "ĠDÄ±ÅŁ": 5160, "var": 5161, "Ġtrafik": 5162, "ultan": 5163, "CI": 5164, "ilmesinde": 5165, "Ã¶yl": 5166, "Ġdavaya": 5167, "LARI": 5168, "ĠAtatÃ¼rk": 5169, "tive": 5170, "ĠbelirtildiÄŁi": 5171, "Ġsebebi": 5172, "Ã¼stÃ¼": 5173, "Ġdurumun": 5174, "ĠMahallesi": 5175, "Ġref": 5176, "ĠKol": 5177, "ĠyÃ¶netimi": 5178, "seniz": 5179, "ĠdosyasÄ±nÄ±n": 5180, "lot": 5181, "Ġpozisyon": 5182, "yasal": 5183, "ĠgÃ¼nd": 5184, "ĠyaklaÅŁÄ±m": 5185, "adÄ±ÄŁ": 5186, "Ġkop": 5187, "Ġ)": 5188, "âĢĻnun": 5189, "Ġprofesyonel": 5190, "ĠÄ°h": 5191, "ĠeriÅŁ": 5192, "ug": 5193, "Ġsebeple": 5194, "ĠyapÄ±sÄ±": 5195, "Ġsert": 5196, "ĠkovuÅŁturma": 5197, "idi": 5198, "EY": 5199, "Ġnedenlerden": 5200, "ekt": 5201, "ĠAnal": 5202, "ĠyapÄ±larak": 5203, "rika": 5204, "ĠÄ°d": 5205, "liliÄŁi": 5206, "Ġbundan": 5207, "Ġbirden": 5208, "masyon": 5209, "iÄŁi": 5210, "layÄ±n": 5211, "ĠbozulmasÄ±": 5212, "lÃ¼lÃ¼k": 5213, "106": 5214, "desi": 5215, "Ġdolu": 5216, "ĠBursa": 5217, "ternatif": 5218, "iliyor": 5219, "ĠeÄŁer": 5220, "Ġbecer": 5221, "eliÅŁ": 5222, "ĠkiÅŁilik": 5223, "Ġgelenek": 5224, "Ġihbar": 5225, "ĠAc": 5226, "104": 5227, "ĠTurk": 5228, "vey": 5229, "BÃ¶lge": 5230, "ĠCan": 5231, "Ġdepo": 5232, "ĠbÃ¼t": 5233, ">N": 5234, "ĠIII": 5235, "-k": 5236, "Ġtahsiline": 5237, "SA": 5238, "abileceÄŁi": 5239, "ĠHUKUK": 5240, "Ġitib": 5241, "afir": 5242, "Ġidari": 5243, "Ġcom": 5244, "ĠDairemizin": 5245, "za": 5246, "ĠKab": 5247, "ĠhakkÄ±ndaki": 5248, "Ġyeter": 5249, "400": 5250, "Ġtayin": 5251, "ĠcezanÄ±n": 5252, "Ø¹": 5253, "Ġhata": 5254, "igh": 5255, "Ġrekabet": 5256, "110": 5257, "âĢĿĊ": 5258, "ĠÃ¶yle": 5259, "ĠyÃ¶nÃ¼nde": 5260, "Ġsigorta": 5261, "lÄ±klarÄ±": 5262, "tepe": 5263, "Ġinfaz": 5264, "El": 5265, "Ġpotansiy": 5266, "ĠdavalÄ±dan": 5267, "ĠMas": 5268, "Ġnolu": 5269, "ĠalÄ±ÅŁveriÅŁ": 5270, "ĠNew": 5271, "Ġverilmek": 5272, "til": 5273, "Ġima": 5274, "Ġverim": 5275, "NDER": 5276, "ĠyarÄ±ÅŁ": 5277, "ĠaracÄ±lÄ±ÄŁÄ±yla": 5278, "egor": 5279, "mada": 5280, "ligat": 5281, "ĠBirinci": 5282, "Ġfesh": 5283, "ĠSavaÅŁ": 5284, "ĠTah": 5285, "ĠdÃ¼ÄŁ": 5286, "iÅŁleri": 5287, "ĠsÃ¼rÃ¼klenen": 5288, "ĠOrta": 5289, "Ġduyg": 5290, "DÃ¼n": 5291, "Ġikti": 5292, "Ġbitk": 5293, "ampiyon": 5294, "nal": 5295, "ĠBankasÄ±": 5296, "siyet": 5297, "lÃ¼man": 5298, "ĠonlarÄ±": 5299, "raman": 5300, "gre": 5301, "dot": 5302, "iyah": 5303, "Ġkurulu": 5304, "Ã§lar": 5305, "ĠSuriye": 5306, "ĠhÃ¼cr": 5307, "Ġolab": 5308, "Ä±lÄ±mÄ±": 5309, "eter": 5310, "ĠtoplanÄ±p": 5311, "ĠNit": 5312, "âĢĵ": 5313, "Ġdif": 5314, "ĠgÃ¶zlem": 5315, "mini": 5316, "-T": 5317, "medi": 5318, "âĢĻnde": 5319, "Ġkategor": 5320, "imar": 5321, "ĠyargÄ±lamaya": 5322, "ima": 5323, "Ġkendine": 5324, "Ġton": 5325, "ĠEÅŁ": 5326, "Ġsayfa": 5327, "Ġneticesinde": 5328, "ĠaÃ§Ä±klamada": 5329, "ĠhayatÄ±nÄ±": 5330, "----": 5331, "Ä±mÄ±zÄ": 5332, "Ä±mÄ±zÄ±": 5333, "iÃ§i": 5334, "ĠdilekÃ§e": 5335, "ĠVal": 5336, "Ġsub": 5337, "Ä±ldÄ±ÄŁÄ±nda": 5338, "ildiÄŁinde": 5339, "YargÄ±tay": 5340, "iÄŁin": 5341, "ulmuÅŁ": 5342, "Ġkonus": 5343, "Ġkanuni": 5344, "ĠSanat": 5345, "ĠYayÄ±nlarÄ±": 5346, "melerin": 5347, "Ġsunuyor": 5348, "ĠAntalya": 5349, "Ä±mÄ±zÄ±n": 5350, "Ġyazar": 5351, "Ġkalma": 5352, "melidir": 5353, "ĠÅŁans": 5354, "log": 5355, "Ġ-Ċ": 5356, "ĠsÄ±nÄ±rlÄ±": 5357, "wit": 5358, "Ġgrubu": 5359, "Ġtez": 5360, "Ġyapacak": 5361, "Ġbirik": 5362, "Ġbat": 5363, "ĠtazminatÄ±": 5364, "ĠkapalÄ±": 5365, "ĠsÃ¼rerek": 5366, "Ġsene": 5367, "adÄ±ÄŁÄ±": 5368, "ĠfiyatlarÄ±": 5369, "]Ċ": 5370, "tiler": 5371, "alp": 5372, "Ùı": 5373, "zet": 5374, "ie": 5375, "Ġemin": 5376, "ĠUygulama": 5377, "Ġistiyorum": 5378, "okras": 5379, "layÄ±cÄ±": 5380, "BozmayÄ±": 5381, "ĠanlayÄ±ÅŁ": 5382, "ĠbaÅŁlangÄ±Ã§": 5383, "Ġbirinin": 5384, "ole": 5385, "ĠesasÄ±na": 5386, "Ġkurtar": 5387, "Ġproje": 5388, "ĠVak": 5389, "Ġediyorum": 5390, "racat": 5391, "Ġsite": 5392, "ĠTay": 5393, "Ġfayda": 5394, "Ġihtiyac": 5395, "ĠhaklarÄ±": 5396, "memesi": 5397, "neÄŁi": 5398, "ĠPazar": 5399, "seri": 5400, "ĠEd": 5401, "Ġanne": 5402, "Ġcen": 5403, "Ġsebeplere": 5404, "-H": 5405, "ARASI": 5406, "Ã¢t": 5407, "ĠGÃ¶k": 5408, "ĠdeÄŁiÅŁken": 5409, "ĠsuÃ§u": 5410, "Ġkuru": 5411, "294": 5412, "125": 5413, "ĠolmalÄ±dÄ±r": 5414, "ĠKÄ±s": 5415, "Ġsefer": 5416, "ĠiÅŁbir": 5417, "ĠKend": 5418, "Ġadr": 5419, "ĠFor": 5420, "ĠyÃ¶ntemi": 5421, "evk": 5422, "ĠaydÄ±n": 5423, "Ġhisset": 5424, "ĠÃ¼nlÃ¼": 5425, "ĠkaydÄ±": 5426, "Ġkaydet": 5427, "ĠÅŁeyi": 5428, "Ġkok": 5429, "OP": 5430, "ĠOrman": 5431, "ĠsÄ±kÄ±ntÄ±": 5432, "ĠyazÄ±lÄ±m": 5433, "leyecek": 5434, "ĠkapsamÄ": 5435, "ĠkapsamÄ±": 5436, "Ġhala": 5437, "Ġonama": 5438, "ĠGÃ¼l": 5439, "rail": 5440, "Ġbelediye": 5441, "ĠÄ°ÅŁlet": 5442, "Ã§esi": 5443, "ĠÃ§evre": 5444, "Ġduvar": 5445, "ĠBal": 5446, "mesiyle": 5447, "Ġqu": 5448, "Ġisimli": 5449, "ain": 5450, "Ġerken": 5451, "Ġdurumlarda": 5452, "lok": 5453, "Ġprim": 5454, "larÄ±m": 5455, "TARÄ°HÄ°": 5456, "ĠyÃ¼kletilmesine": 5457, "ĠHalk": 5458, "Ġetkilen": 5459, "ĠpopÃ¼ler": 5460, "amik": 5461, "Ġgol": 5462, ".tr": 5463, "Ġetki": 5464, "ĠkÃ¶t": 5465, "ĠseÃ§en": 5466, "ĠDava": 5467, "ilerde": 5468, "mede": 5469, "ĠAlmanya": 5470, "kÃ»m": 5471, "Ä±sÄ±z": 5472, "Ġimza": 5473, "NUM": 5474, "gÄ±lan": 5475, "ipto": 5476, "ĠaÅŁÄ±rÄ±": 5477, "ĠinsanÄ±n": 5478, "Ġval": 5479, "Ġbonus": 5480, "miÅŁti": 5481, "ĠGÃĸNDER": 5482, "ĠgÃ¶Ã§": 5483, "Ġvas": 5484, "ĠyetiÅŁ": 5485, "ĠsÃ¼reli": 5486, "Ġuyan": 5487, "acÄ±lÄ±k": 5488, "uf": 5489, "ĠkullanÄ±lÄ±r": 5490, "ĠalÄ±ndÄ±ÄŁÄ±nda": 5491, "Mahkemesi": 5492, "cess": 5493, "ĠBan": 5494, "lÄ±ÄŁÄ±nda": 5495, "ĠaÄŁaÃ§": 5496, "kon": 5497, "ĠPlan": 5498, "ĠElektr": 5499, "Ġyoksa": 5500, "tek": 5501, "ulmaz": 5502, "Ġbenimsen": 5503, "ish": 5504, "ledi": 5505, "ĠbaÅŁlÄ±klÄ±": 5506, "ĠiÃ§eri": 5507, "ider": 5508, "larÄ±mÄ±zÄ": 5509, "larÄ±mÄ±zÄ±": 5510, "ĠBin": 5511, "ĠÃľst": 5512, "ĠÄ°yi": 5513, "ĠprogramÄ": 5514, "ĠprogramÄ±": 5515, "Ġtaraflar": 5516, "ĠgÃ¶rÃ¼ldÃ¼ÄŁ": 5517, "ĠtÃ¶r": 5518, "ĠdÃ¼zenli": 5519, "abiliyor": 5520, "ĠbaÅŁlar": 5521, "rÃ¼k": 5522, "Ã¼kmÃ¼n": 5523, "dy": 5524, "ĠÃ§alÄ±ÅŁmasÄ±": 5525, "Ã¼ye": 5526, "ĠÃ§ocuÄŁun": 5527, "ĠÃ¶lÃ§Ã¼de": 5528, "ĠSah": 5529, "ĠoluÅŁturan": 5530, "Ġch": 5531, "Ġkoruma": 5532, "Ġhikay": 5533, "Ġolmadan": 5534, "Ġves": 5535, "NUMARASI": 5536, "ĠFat": 5537, "ĠHam": 5538, "Ġyetkil": 5539, "Ġyetersiz": 5540, "atÄ±cÄ±": 5541, "ĠAz": 5542, "akar": 5543, "Ġus": 5544, "KK": 5545, "ĠBet": 5546, "Ġedilmektedir": 5547, "ĠalmÄ±ÅŁ": 5548, "ĠAmerika": 5549, "gulan": 5550, "maktay": 5551, "dev": 5552, "Ġvad": 5553, "duklarÄ±": 5554, "ĠOyun": 5555, "ĠsaÄŁlayacak": 5556, "low": 5557, "ĠgÃ¶rÃ¼yor": 5558, "teri": 5559, "ever": 5560, "ates": 5561, "Ġsorunu": 5562, "ĠÅŁeyler": 5563, "ĠMÃ¼z": 5564, "yse": 5565, "gn": 5566, "Ä±sal": 5567, "ĠvarlÄ±ÄŁÄ±": 5568, "ray": 5569, "ĠÅŁif": 5570, "Ġverildikten": 5571, "Ġoyunu": 5572, "ĠolmadÄ±ÄŁÄ±ndan": 5573, "ĠÄ±ÅŁÄ±k": 5574, "440": 5575, "ĠmÃ¼t": 5576, "land": 5577, "105": 5578, "ĠÃ¶nceden": 5579, "ĠaÃ§Ä±kÃ§a": 5580, "ĠFakÃ¼ltesi": 5581, "yasÄ±": 5582, "ĠtÃ¼ketim": 5583, "ĠdoÄŁum": 5584, "ĠMev": 5585, "ĠVar": 5586, "):": 5587, "iber": 5588, "Ġedene": 5589, "kz": 5590, "ĠdÃ¼zeltilmesi": 5591, "efet": 5592, "tÄ±yor": 5593, "ĠkanÄ±nÄ±n": 5594, "Ġredded": 5595, "Ġhayata": 5596, "ĠGÃ¼venlik": 5597, "hane": 5598, "Ġbeden": 5599, "103": 5600, "Ġbizi": 5601, "Ġapp": 5602, "Ġyetkili": 5603, "Ġ:Ċ": 5604, "kol": 5605, "Ġveriyor": 5606, "Ġtahsili": 5607, "âĢĻi": 5608, "SAY": 5609, "ĠdÃ¼zeyde": 5610, "Ġkendisi": 5611, "ĠDanÄ±ÅŁ": 5612, "Ġtavsiye": 5613, "dÄ±ÄŁÄ±m": 5614, "Ġhakaret": 5615, "ĠkÃ¶k": 5616, "ĠtaÅŁÄ±yan": 5617, "dÄ±mÄ±": 5618, "Ġic": 5619, "ĠoluÅŁtuÄŁu": 5620, "bn": 5621, "ally": 5622, "fÄ": 5623, "ition": 5624, "Ġuyum": 5625, "Ġbitir": 5626, "Ġyakalan": 5627, "Ġâ": 5628, "mur": 5629, "AÃ§Ä±k": 5630, "ĠdÃ¼nyada": 5631, "LAN": 5632, "cilik": 5633, "Ä±lÄ±Ã§": 5634, "................................": 5635, "Ġme": 5636, "Ġbol": 5637, "ĠgÃ¼neÅŁ": 5638, "ĠyÃ¼zyÄ±l": 5639, "Av": 5640, "ĠGÃ¶": 5641, "imd": 5642, "ĠSamsun": 5643, "ĠeÄŁitimi": 5644, "erken": 5645, "ĠUn": 5646, "SuÃ§": 5647, "$Ċ": 5648, "ĠÃ§ekiÅŁ": 5649, "Ġmm": 5650, "ĠuÃ§ak": 5651, "ĠGÃ¶z": 5652, "eygam": 5653, "yp": 5654, "tein": 5655, "icil": 5656, "Ġec": 5657, "ĠCumhurbaÅŁkanÄ±": 5658, "ĠgÃ¼nlÃ¼": 5659, "ĠteÅŁvik": 5660, "ĠoyunlarÄ±": 5661, "Ġtetkik": 5662, "ĠEscort": 5663, "ĠhatalÄ±": 5664, "ĠÅŁiir": 5665, "ĠMur": 5666, "ĠÅŁartÄ±": 5667, "lus": 5668, "fÄ±": 5669, "ĠyapÄ±lma": 5670, "Res": 5671, "ĠzayÄ±f": 5672, "ĠisteÄŁi": 5673, "ĠkarÅŁÄ±lÄ±klÄ±": 5674, "ĠfiyatÄ±": 5675, "kek": 5676, "ĠuyuÅŁturucu": 5677, "ĠMark": 5678, "Ġsaf": 5679, "ĠTeknik": 5680, "ĠsÃ¶zleÅŁmesinin": 5681, "ĠYer": 5682, "ĠyapÄ±lmÄ±ÅŁtÄ±r": 5683, "ĠÃ¼yesi": 5684, "isiyle": 5685, "ĠyapÄ±ldÄ±": 5686, "lardÄ±": 5687, "Ġparti": 5688, "Ġnaz": 5689, "322": 5690, "Ġulusal": 5691, "ĠÃ¼cretinin": 5692, "Ġetmeye": 5693, "Ġdurdur": 5694, "Ġlez": 5695, "ĠÃľy": 5696, "Ġistenilmekle": 5697, "ĠKul": 5698, "Ġkod": 5699, "Ġilave": 5700, "ĠTEMYÄ°Z": 5701, "####": 5702, "Ġters": 5703, "ĠinÅŁa": 5704, "landÄ±ÄŁÄ±": 5705, "lenmiÅŁ": 5706, "Ġkilo": 5707, "ĠÃ¼rÃ¼nler": 5708, "ĠkÃ¼t": 5709, "orn": 5710, "ĠÄ°nÅŁ": 5711, "age": 5712, "ĠolacaÄŁ": 5713, "ood": 5714, "ĠÃ§ocuklar": 5715, "ĠSen": 5716, "Ġizley": 5717, "atÄ±rÄ±m": 5718, "Ġtane": 5719, "ĠbÃ¼ny": 5720, "gÄ±lama": 5721, "ĠÄ°cra": 5722, "ĠmÃ¼lkiyet": 5723, "ĠDoÄŁu": 5724, "Ġsabah": 5725, "Ġmesel": 5726, "tuk": 5727, "Ġmahkemesine": 5728, "Ġlira": 5729, "ĠPaÅŁa": 5730, "ĠfÄ±krasÄ±nda": 5731, "ĠÃ§ocuklarÄ±n": 5732, "Ġdey": 5733, "ĠitibarÄ±yla": 5734, "Ev": 5735, "ĠyÃ¶nde": 5736, "ĠgÃ¼cÃ¼": 5737, "etler": 5738, "Ġasit": 5739, "Ġediyoruz": 5740, "ĠniteliÄŁinde": 5741, "Ġtesbit": 5742, "ĠkayÄ±p": 5743, "ĠkarÅŁÄ±lan": 5744, "ĠDÃ¼ÅŁ": 5745, "ĠsonuÃ§lar": 5746, "ĠyaÅŁama": 5747, "Ä±ldÄ±ÄŁÄ±nÄ±": 5748, "ĠgÄ±da": 5749, "ĠmÃ¼kemmel": 5750, "ĠÃ¼lkenin": 5751, "130": 5752, "ĠanlaÅŁÄ±lmakla": 5753, "emiÅŁtir": 5754, "Ġteknoloji": 5755, "Ġciv": 5756, "ĠelveriÅŁ": 5757, "nik": 5758, "ĠsÃ¼recini": 5759, "led": 5760, "Ã§iler": 5761, "Ġbazen": 5762, "ĠGÃĸNDERÄ°LMESÄ°NE": 5763, "Ġbelirtti": 5764, "anÄ±larak": 5765, "Ú©": 5766, "Ġbunlar": 5767, "ĠaÃ§Ä±dan": 5768, "Ġterk": 5769, "Ġincelenen": 5770, "ĠkayÄ±tlÄ±": 5771, "Ãĸzel": 5772, "Ġyaralama": 5773, "ĠSh": 5774, "ĠMÃ¼dÃ¼rlÃ¼ÄŁ": 5775, "ĠcÃ¼ml": 5776, "alim": 5777, ".âĢĿĊ": 5778, "ĠhaklÄ±": 5779, "eleriyle": 5780, "ĠDiy": 5781, "ck": 5782, "ĠÄ°lÃ§e": 5783, "112": 5784, "ĠEx": 5785, "ĠÄ°m": 5786, "Ġbebek": 5787, "Ġharca": 5788, "ĠbaÄŁlam": 5789, "ĠÃ§oÄŁ": 5790, "ĠUsulÃ¼": 5791, "ĠEkonom": 5792, "yÃ¼z": 5793, "Ġkesinlikle": 5794, "Ä±mÄ±zda": 5795, "ĠvÃ¼cu": 5796, "ĠHz": 5797, "ĠTes": 5798, "Ä±nÄ±zda": 5799, "ĠKah": 5800, "ĠyÄ±ldÄ±r": 5801, "masÄ±yla": 5802, "Ġbelki": 5803, "Ġmevzu": 5804, "EP": 5805, "ĠKanuna": 5806, "ane": 5807, "ĠÅŀekil": 5808, "ĠFir": 5809, "ĠyarÄ": 5810, "ĠyarÄ±": 5811, "ersin": 5812, "Ġfiziksel": 5813, "ĠSit": 5814, "ĠAm": 5815, "ĠKiÅŁ": 5816, "bahÃ§e": 5817, "row": 5818, "Ġkans": 5819, "ĠyukarÄ±": 5820, "Ġrakam": 5821, "rum": 5822, "Tek": 5823, "Ġvekilince": 5824, "190": 5825, "ĠÃ§alÄ±ÅŁmada": 5826, "±cÄ±lÄ±k": 5827, "Ä±cÄ±lÄ±k": 5828, "ĠdeÄŁin": 5829, "amin": 5830, "Ä±lmaktadÄ±r": 5831, "Ġistatistik": 5832, "ĠyaÅŁÄ±ndaki": 5833, "Ġyolc": 5834, "Ġkm": 5835, "Ġreh": 5836, "Ä±ntÄ±lÄ±": 5837, "ete": 5838, "'u": 5839, "ĠDolayÄ±sÄ±yla": 5840, "RO": 5841, "ĠbileÅŁ": 5842, "Ġaskeri": 5843, "ĠTrabz": 5844, "ĠgeldiÄŁi": 5845, "ĠyapÄ±m": 5846, "Ġyapmaya": 5847, "ĠSanayi": 5848, "ĠyardÄ±mÄ±": 5849, "ĠApp": 5850, "Ġedebilirsiniz": 5851, "tÄ±cÄ±": 5852, "ĠistediÄŁiniz": 5853, "ph": 5854, "ĠiÅŁletme": 5855, "bÃ¶l": 5856, "Es": 5857, "Ġedip": 5858, "icdani": 5859, "Ġgiderilmesi": 5860, "Ã§uk": 5861, "ĠanlaÅŁÄ±lmaktadÄ±r": 5862, "ebiliriz": 5863, "-C": 5864, "Ġistik": 5865, "ĠfÄ±kra": 5866, "Ġmetal": 5867, "'lik": 5868, "Ġgal": 5869, "iklet": 5870, "Ġhave": 5871, "ona": 5872, "Ġalternatif": 5873, "TI": 5874, "Ġyola": 5875, "Ġotomobil": 5876, "ĠaracÄ±n": 5877, "ĠÃ¼stÃ¼n": 5878, "Ġinter": 5879, "pi": 5880, "ĠTV": 5881, "ĠdÃ¼ÅŁÃ¼nÃ¼l": 5882, "Ã¤": 5883, "ĠÄ°ran": 5884, "111": 5885, "manlÄ±k": 5886, "Ġtalebi": 5887, "ĠinanÃ§": 5888, "uman": 5889, "LU": 5890, "Ġveriler": 5891, "EZ": 5892, "Ġkaza": 5893, "Ġseyahat": 5894, "ture": 5895, "alatasar": 5896, "ĠhÄ±rsÄ±zlÄ±k": 5897, "ĠtebliÄŁnameye": 5898, "zi": 5899, "ĠgÃ¶rÃ¼lmÃ¼ÅŁtÃ¼r": 5900, "Ġsahib": 5901, "ĠÃľrÃ¼n": 5902, "brÄ±s": 5903, "Ġtuz": 5904, "ĠIs": 5905, "Ġduyar": 5906, "Ġtemyizen": 5907, "ĠMa": 5908, "ĠÃľcret": 5909, "Ä±ÅŁÄ±k": 5910, "''": 5911, "ĠbÃ¶ylece": 5912, "ĠÅŀah": 5913, "Ġetraf": 5914, "ĠÃĸl": 5915, "ĠkaÅŁ": 5916, "ĠBunlar": 5917, "ÃĸÄŁr": 5918, "eygamber": 5919, "Dev": 5920, "ĠsuÃ§tan": 5921, "ĠÃ§eliÅŁ": 5922, "ĠHem": 5923, "ĠsayÄ±lan": 5924, "alatasaray": 5925, "ows": 5926, "Ġkimlik": 5927, "107": 5928, "ĠaÃ§Ä±kla": 5929, "Ġkred": 5930, "Ġyans": 5931, "ĠAR": 5932, "ĠDerneÄŁi": 5933, "ĠsipariÅŁ": 5934, "mediÄŁini": 5935, "Ġbayram": 5936, "lasik": 5937, "fat": 5938, "ĠMat": 5939, "Biz": 5940, "ektif": 5941, "ĠanlaÅŁÄ±ldÄ±ÄŁÄ±ndan": 5942, "liliÄŁ": 5943, "ĠdÄ±ÅŁarÄ±": 5944, "Mahalli": 5945, "ĠitirazÄ±n": 5946, "tre": 5947, "ĠgÃ¶rÃ¼ldÃ¼ÄŁÃ¼nden": 5948, "ĠÃĩek": 5949, "ĠelveriÅŁli": 5950, "ĠsÄ±v": 5951, "ĠyÄ±lda": 5952, "ĠGÃ¼ncel": 5953, "ĠkiÅŁiye": 5954, "Ġvit": 5955, "Ġkararlar": 5956, "kiÅŁ": 5957, "ÙĤ": 5958, "ecilik": 5959, "Ġzil": 5960, "adÄ±k": 5961, "Ġrej": 5962, "diler": 5963, "ĠYine": 5964, "Kan": 5965, "ĠhazÄ±rlan": 5966, "Ġap": 5967, "ĠFilm": 5968, "ĠolmasÄ±nÄ±": 5969, "Ġkendilerine": 5970, "ĠgÃ¶rÃ¼lmemesine": 5971, "sor": 5972, "ðŁ": 5973, "±b": 5974, "ĠÃ§alÄ±ÅŁtÄ±r": 5975, "Ġgiden": 5976, "Ġuygul": 5977, "ĠYapÄ±lan": 5978, "231": 5979, "Ä±b": 5980, "erg": 5981, "antep": 5982, "lediÄŁ": 5983, "ĠmÃ¼vekkilinin": 5984, "ĠBaÅŁvur": 5985, "ĠHol": 5986, "Ġkadro": 5987, "onun": 5988, "Ġyor": 5989, "sam": 5990, "ĠÃ¶ÄŁret": 5991, "Ġfen": 5992, "ĠBugÃ¼n": 5993, "Ġkimse": 5994, "oyu": 5995, "Ġverg": 5996, "Ġolmas": 5997, "ĠkullanÄ±larak": 5998, "ĠmaaÅŁ": 5999, "Ġgetiren": 6000, "ĠsÄ±nÄ±rlarÄ±": 6001, "223": 6002, "ebilmesi": 6003, "Ġverilir": 6004, "Ġrez": 6005, "Ġbelgelere": 6006, "ĠbakÄ±ÅŁ": 6007, "ĠgÃ¼nde": 6008, "Ġsokak": 6009, "Ġoranda": 6010, "Ġkesim": 6011, "ĠgÃ¼nlerde": 6012, "Ġayn": 6013, "ĠdavalÄ±lardan": 6014, "ĠSA": 6015, "ĠuyarÄ±": 6016, "fik": 6017, "Ġ>": 6018, "ĠBunu": 6019, "his": 6020, "DP": 6021, "ĠyeÅŁil": 6022, "'Ã¼n": 6023, "Ġgiderek": 6024, "omo": 6025, "ĠacÄ±": 6026, "Ġotomatik": 6027, "leÅŁtirme": 6028, "maktan": 6029, "ĠvarlÄ±k": 6030, "Ġsevk": 6031, "eÅŁiktaÅŁ": 6032, "ĠBo": 6033, "Ġzih": 6034, "ĠÃ§eken": 6035, "etrol": 6036, "ĠyaptÄ±klarÄ±": 6037, "Ã¼mrÃ¼k": 6038, "SAYISI": 6039, "Ġtablo": 6040, "Ġbina": 6041, "Ġdeng": 6042, "Ġresim": 6043, "ĠNur": 6044, "mm": 6045, "ĠCev": 6046, "Ġuyumlu": 6047, "ystem": 6048, "lÃ¼yor": 6049, "Ġbelge": 6050, "ĠaÃ§Ä±kladÄ±": 6051, "biy": 6052, "Ġederim": 6053, "Ġimar": 6054, "ĠdayanÄ±larak": 6055, "ĠHÃ¼s": 6056, "109": 6057, "Ġvakit": 6058, "ĠBitcoin": 6059, "âĢĻte": 6060, "itif": 6061, "ĠCo": 6062, "ĠKurumu": 6063, "ĠlazÄ±m": 6064, "likler": 6065, "ĠbulunmamasÄ±na": 6066, "Ä±lmasÄ±nÄ±": 6067, "ĠuygulanmasÄ±na": 6068, "ordin": 6069, "Ġamel": 6070, "{\\": 6071, "ĠGrup": 6072, "Ġtamamlan": 6073, "ĠbunlarÄ±": 6074, "urken": 6075, "ĠgerekmiÅŁtir": 6076, "Ġokunduktan": 6077, "Ġez": 6078, "Ġgide": 6079, "ĠkonuÅŁma": 6080, "operatif": 6081, "cular": 6082, "Ġpark": 6083, "ĠalÄ±p": 6084, "ĠkamulaÅŁtÄ±rma": 6085, "ĠÃ§ab": 6086, "Ġmuv": 6087, "ĠbalÄ±k": 6088, "Ġkriz": 6089, "Ä°l": 6090, "Ġdijital": 6091, "ĠÄ°ngiltere": 6092, "Ġkeyif": 6093, "Ġkomisyon": 6094, "Ä±nar": 6095, "ĠbÃ¶lgede": 6096, "abilmesi": 6097, "180": 6098, "ĠGerÃ§ek": 6099, "ĠBon": 6100, "ĠkaÃ§ak": 6101, "ĠiÅŁlev": 6102, "ĠdavalÄ±ya": 6103, "ĠiliÅŁkiler": 6104, "ĠBatÄ±": 6105, "ĠparÃ§asÄ±": 6106, "Ġyur": 6107, "Ġbaba": 6108, "ice": 6109, "ometr": 6110, "ĠhayÄ±r": 6111, "ham": 6112, "TC": 6113, "eÄŁe": 6114, "Ġihti": 6115, "ĠakÄ±llÄ±": 6116, ">.": 6117, "Ġelektronik": 6118, "Ġdenk": 6119, "Ġatan": 6120, "SK": 6121, "ĠkÃ¶ÅŁ": 6122, "Ġsuyu": 6123, "kat": 6124, "ĠYan": 6125, "TK": 6126, "irler": 6127, "Ġevde": 6128, "witter": 6129, "ĠFin": 6130, "ĠsÄ±caklÄ±k": 6131, "ĠKonya": 6132, "oto": 6133, "ĠIV": 6134, "ĠÂ»": 6135, "ĠyÃ¶nlendir": 6136, "ĠkomÅŁ": 6137, "Ġvurgu": 6138, "Ġdizi": 6139, "ĠOkul": 6140, "Ä°D": 6141, "ĠkÄ±ÅŁ": 6142, "Ġgur": 6143, "Ġbiy": 6144, "ahtar": 6145, "ĠolacaÄŁÄ±": 6146, "HA": 6147, "Ġfiil": 6148, "Ġfaydalan": 6149, "Ã¼rr": 6150, "ĠvÃ¼cut": 6151, "Ġmilli": 6152, "ube": 6153, "Mahkeme": 6154, "Ġsigortal": 6155, "ĠolmalÄ±": 6156, "Ġexp": 6157, "ĠYunan": 6158, "brahim": 6159, "ii": 6160, "ĠhÃ¼kÃ¼mlerine": 6161, "ĠkullandÄ±": 6162, "emeyeceÄŁi": 6163, "Ġzinc": 6164, "Ġmali": 6165, "erse": 6166, "mut": 6167, "OM": 6168, "ĠkÄ±dem": 6169, "igure": 6170, "âĢĻta": 6171, "ĠYorum": 6172, "ĠÄ°ÅŁlem": 6173, "Ġince": 6174, "ĠgÃ¼l": 6175, "ÃľZEL": 6176, ".-": 6177, "Ġderecede": 6178, "los": 6179, "ĠkadÄ±nÄ±n": 6180, "diÄŁimiz": 6181, "ĠkaldÄ±": 6182, "ĠimkanÄ±": 6183, "ĠkaldÄ±ÄŁÄ±": 6184, "160": 6185, "Ġanti": 6186, "ubu": 6187, "ĠyaptÄ±ÄŁ": 6188, "ebileceÄŁi": 6189, "ĠedeceÄŁ": 6190, "Ġihlal": 6191, "ĠakÄ±ÅŁ": 6192, "Ġkoruy": 6193, "ĠgeliÅŁmeler": 6194, "ĠolmamasÄ±": 6195, "Ġetkiley": 6196, "123": 6197, "Ġadresi": 6198, "gul": 6199, "Ġeleman": 6200, ".T": 6201, "kÃ»miyet": 6202, "Ġsunar": 6203, "Ġyiy": 6204, "ĠyatÄ±rÄ±mcÄ±": 6205, "ĠÃ§aba": 6206, "IZ": 6207, "enkul": 6208, ")'": 6209, "letiÅŁim": 6210, "kÃ¶y": 6211, "Ġmahal": 6212, "Ġvel": 6213, "Ġyaparken": 6214, "ĠkaynaÄŁÄ±": 6215, "Ġ$$Ċ": 6216, "mon": 6217, "142": 6218, "ĠkaÃ§Ä±n": 6219, "Ġasla": 6220, "ĠArap": 6221, "Ġizle": 6222, "'ca": 6223, "116": 6224, "ĠdetaylÄ±": 6225, "ĠyapÄ±lmasÄ±nÄ±": 6226, "ĠdeÄŁerlendirilmesi": 6227, "Ġolmay": 6228, "ĠBr": 6229, "115": 6230, "Cumhur": 6231, "ĠDok": 6232, "Ġfab": 6233, "Ġmevcuttur": 6234, "ĠyaÅŁay": 6235, "ĠYÃ¶netimi": 6236, "ĠDil": 6237, "Ġharika": 6238, "abileceÄŁiniz": 6239, "ĠDir": 6240, "rop": 6241, "ĠadlandÄ±r": 6242, "Ġmasraf": 6243, "Ġyerini": 6244, "ĠbelirlenmiÅŁtir": 6245, "ĠÃ¶zen": 6246, "liler": 6247, "muyor": 6248, "unc": 6249, "ĠgÃ¼ndem": 6250, "ĠSat": 6251, "enerbahÃ§e": 6252, "okul": 6253, "out": 6254, "estor": 6255, "aÄŁÄ±n": 6256, "Ġith": 6257, "ker": 6258, "Ġirad": 6259, "oker": 6260, "ĠSin": 6261, "Ġnoktada": 6262, "Ġasgari": 6263, "ĠGoogle": 6264, "ĠKanunla": 6265, "ĠDaire": 6266, "Ġdemir": 6267, "stagram": 6268, "ĠHaf": 6269, "ents": 6270, "ĠihtiyacÄ±": 6271, "Ġhasar": 6272, "Ġpolitika": 6273, "ĠgerekÃ§eli": 6274, "Ġimzalan": 6275, "Ġistey": 6276, "ĠdoÄŁur": 6277, "Ġhaft": 6278, "ĠAÃ§": 6279, "uld": 6280, "Ġsermaye": 6281, "acebook": 6282, "ĠKoca": 6283, "eytin": 6284, "deniz": 6285, "ĠkÃ¼ltÃ¼rel": 6286, "SS": 6287, "ĠPr": 6288, "Ġverecek": 6289, "ĠkamulaÅŁtÄ±r": 6290, "Ġtaraftan": 6291, "Ġkalp": 6292, "Ġnitelikli": 6293, "ĠÅŀimdi": 6294, "ĠAdana": 6295, "Ä°z": 6296, "ĠÃ§ay": 6297, "dun": 6298, "aseb": 6299, "Ä±rlar": 6300, "ĠyargÄ±lamasÄ±": 6301, "ĠbÃ¼r": 6302, "kadaÅŁ": 6303, "ĠÐ": 6304, "Ġmaddesiyle": 6305, "ĠÃĸÄŁretmen": 6306, "ĠmÃ¼dahale": 6307, "arÄ±nda": 6308, "etleri": 6309, "ĠGÃ¼ney": 6310, "ĠOf": 6311, "ĠilamÄ±nda": 6312, "ĠsonuÃ§larÄ±na": 6313, "emli": 6314, "lÃ¼t": 6315, "ĠolaÄŁan": 6316, "Ġorganizasyon": 6317, "ĠSey": 6318, "ular": 6319, "ĠbirliÄŁi": 6320, "ix": 6321, "ĠyÃ¼klen": 6322, "ology": 6323, "Ġtheir": 6324, "ĠÃĩalÄ±ÅŁma": 6325, "ĠMus": 6326, "ild": 6327, "ry": 6328, "Ã¼mÃ¼ÅŁ": 6329, "ĠhÃ¼kÃ¼mlerinin": 6330, "ĠvermiÅŁ": 6331, "ĠBek": 6332, "-c": 6333, "ĠanlaÅŁÄ±lmasÄ±": 6334, "ĠkarÄ±ÅŁtÄ±r": 6335, "ĠUluslararasÄ±": 6336, "dÃ¼str": 6337, "ĠotobÃ¼s": 6338, "ĠdesteÄŁi": 6339, "Ġstat": 6340, "emeyen": 6341, "ĠetkileÅŁ": 6342, "Ġokundu": 6343, "Bel": 6344, "ĠalÄ±ndÄ±": 6345, "ĠGÃ¼r": 6346, "masÄ±z": 6347, "mÄ±z": 6348, "Ġolanlar": 6349, "liÄŁname": 6350, "ĠkarÅŁÄ±lÄ±ÄŁ": 6351, "Ġonlara": 6352, "uldu": 6353, "Ġgerekse": 6354, "kal": 6355, "ĠTarÄ±m": 6356, "Ġarka": 6357, "ĠgÃ¶rsel": 6358, "Ġteor": 6359, "ĠLig": 6360, "lemesi": 6361, "Ġsunu": 6362, "Ġortamda": 6363, "Ġistenmesi": 6364, "114": 6365, "ĠgÃ¶nÃ¼l": 6366, "Ä±lÄ±ÄŁÄ±n": 6367, "diÄŁinde": 6368, "Ġolgu": 6369, "AyrÄ±ca": 6370, "ĠgÃ¶zetilmeden": 6371, "tial": 6372, "Ġedilecek": 6373, "ĠSultan": 6374, "tÄ±klarÄ±": 6375, "ĠkatÄ": 6376, "bor": 6377, "ĠkatÄ±": 6378, "ĠaÃ§Ä±klanmasÄ±nÄ±n": 6379, "bette": 6380, "landÄ±rÄ±cÄ±lÄ±k": 6381, "ĠHaberleri": 6382, "ĠkaÃ§Ä±r": 6383, "Ġbiridir": 6384, "Ad": 6385, "Ġdayanan": 6386, "rama": 6387, "ciler": 6388, "manÄ±zÄ±": 6389, "iydi": 6390, "ĠTÃľRÃľ": 6391, "unma": 6392, "ĠMuham": 6393, "ĠoÄŁlu": 6394, "ĠMÃ¼slÃ¼man": 6395, "ĠgerÃ§": 6396, "mÄ": 6397, "ĠÃ§alÄ±ÅŁÄ±yor": 6398, "ÃĸZ": 6399, "ĠeriÅŁim": 6400, "ĠÅŁaÅŁ": 6401, "ÃĸN": 6402, "ĠÃĸÄŁrenc": 6403, "larÄ±mÄ±za": 6404, "ĠYardÄ±mcÄ±sÄ±": 6405, "Ġizlen": 6406, "Ġbedeli": 6407, "119": 6408, "Ġbozuk": 6409, "elsef": 6410, "ĠaÅŁk": 6411, "ĠFark": 6412, "ĠkÃ¼resel": 6413, "Ġkurtul": 6414, "ĠBayram": 6415, "ĠFiyat": 6416, "ĠdÃ¼ÅŁtÃ¼": 6417, "Ġucuz": 6418, "ĠPh": 6419, "bakÄ±r": 6420, "ebilmek": 6421, "ĠÃ¶ÄŁrenme": 6422, "Ġmalik": 6423, "Ġsunulan": 6424, "Ġbenzeri": 6425, "ĠiÅŁÃ§inin": 6426, "ĠiÅŁyerinde": 6427, "Ph": 6428, "ledik": 6429, "ĠOt": 6430, "yeri": 6431, "ĠayÄ": 6432, "http": 6433, "ĠayÄ±": 6434, "ĠdoÄŁan": 6435, "'li": 6436, "Ġmuhalefet": 6437, "ĠYÄ±lmaz": 6438, "ĠLtd": 6439, "ĠiÅŁte": 6440, "lamÄ±ÅŁ": 6441, "ĠOrt": 6442, "TÃ¼m": 6443, "Ġmiktarda": 6444, "ĠĠĠĠ": 6445, "ĠKomisyon": 6446, "TÄ°": 6447, "Ùģ": 6448, "ĠsÃ¼resinin": 6449, "Ġhalen": 6450, ">+": 6451, "DAN": 6452, "melik": 6453, "iyim": 6454, "uÅŁmazlÄ±k": 6455, "orta": 6456, "Ġcilt": 6457, "128": 6458, "ĠAltÄ±n": 6459, "tifak": 6460, "ĠSab": 6461, "ĠgelmiÅŁ": 6462, "ĠdÃ¶nemi": 6463, "ĠKÃ¼Ã§Ã¼k": 6464, "ĠbarÄ±n": 6465, "Ġnih": 6466, "ĠiÅŁletmeler": 6467, "ĠiÃ§eriÄŁ": 6468, "ĠAmerik": 6469, "Daha": 6470, "ÉĻ": 6471, "gÃ¼": 6472, "Ġzamanlarda": 6473, "ĠoluÅŁum": 6474, "Ġtutum": 6475, "Hay": 6476, "EF": 6477, "ĠalmÄ±ÅŁtÄ±r": 6478, "ben": 6479, "Ġmaddesindeki": 6480, "ĠSÃ¶zleÅŁ": 6481, "Ġdenet": 6482, "isiniz": 6483, "ĠuÄŁraÅŁ": 6484, "Ġfinansal": 6485, "ĠSulh": 6486, "tih": 6487, "ĠkurallarÄ±": 6488, "und": 6489, "ikat": 6490, "ahh": 6491, "abilirler": 6492, "Ġhassas": 6493, "ĠsaÄŁlanmasÄ±": 6494, "ĠÅŁirketi": 6495, "ĠÃ¼rÃ¼nÃ¼": 6496, "113": 6497, "ĠÄ°dare": 6498, "amasÄ±": 6499, "ĠEnstit": 6500, "ĠistenilmiÅŁ": 6501, "Ġkitab": 6502, "Ġilgilen": 6503, "ail": 6504, "Ġmus": 6505, "Ġpotansiyel": 6506, "ĠkarÅŁÄ±n": 6507, "mÄ±": 6508, "Ġzevk": 6509, ".Y": 6510, "ilmelidir": 6511, "Kon": 6512, "ĠmÃ¼ÅŁ": 6513, "ĠvermiÅŁtir": 6514, "ĠÃ¼lkede": 6515, "Ġtelevizyon": 6516, "ĠfazlasÄ±": 6517, "Ġbireysel": 6518, "ĠsÃ¼recinde": 6519, "Ġbeklent": 6520, "eÄŁine": 6521, "ĠBat": 6522, "Ġsivil": 6523, "Ġtakv": 6524, "ĠdÃ¼ÅŁÃ¼nce": 6525, "Ġtepki": 6526, "arbakÄ±r": 6527, "erseniz": 6528, "ĠyayÄ±nlanan": 6529, "deÄŁ": 6530, "TÃľR": 6531, "baÅŁÄ": 6532, "SO": 6533, "baÅŁÄ±": 6534, "Ġhast": 6535, "ĠatÄ±lÄ±": 6536, "ste": 6537, "ĠSadece": 6538, "ĠHey": 6539, "Ġdurumunun": 6540, "ĠTeÅŁ": 6541, "ĠTÄ±p": 6542, "ĠhÄ±zla": 6543, "600": 6544, "Ġgeleneksel": 6545, ">:": 6546, "ĠsaygÄ±": 6547, "ĠgerÃ§ekleÅŁtirilen": 6548, "ĠbulunduÄŁunu": 6549, "Ġplak": 6550, "ĠmÃ¼ÅŁteriler": 6551, "Ã¢y": 6552, "anti": 6553, "ics": 6554, "Ġbelediy": 6555, "ĠÅŁekli": 6556, "Ġest": 6557, "ĠCom": 6558, "Bil": 6559, "ĠilÃ§esinde": 6560, "ĠdavacÄ±lar": 6561, "Ġfaizi": 6562, "leyerek": 6563, "ĠbulunduÄŁundan": 6564, "132": 6565, "Ġkasten": 6566, "ĠWeb": 6567, "Ġdam": 6568, "Ġbilimsel": 6569, "emize": 6570, "ĠÃĩar": 6571, "ĠAvukat": 6572, "Ġpil": 6573, "Ġdiyerek": 6574, "EVR": 6575, ">E": 6576, "Ġeh": 6577, "-posta": 6578, "Ġekib": 6579, "ĠSuÃ§": 6580, "ĠKarÅŁÄ±": 6581, "Ġyapabilirsiniz": 6582, "ĠedildiÄŁini": 6583, "ĠkÄ±rmÄ±zÄ±": 6584, "EÃĩ": 6585, "iya": 6586, "ĠendiÅŁ": 6587, "Ġederken": 6588, "Ġbahsed": 6589, "lisi": 6590, "anlÄ±k": 6591, "ĠVol": 6592, "Ġkolayca": 6593, "Ġsanayi": 6594, "ĠÅŁahÄ±s": 6595, "ĠÃ¶lÃ§Ã¼m": 6596, "ĠBununla": 6597, "ĠÄ±sÄ±": 6598, "Kur": 6599, "DEN": 6600, "Ġkira": 6601, "ĠgerÃ§ekleÅŁen": 6602, "560": 6603, "Ġtarihte": 6604, "ĠdÃ¶viz": 6605, "Ġartan": 6606, "ĠyansÄ±tan": 6607, "ĠÃ¼retic": 6608, "Ġbelirsiz": 6609, "Ġgerektirir": 6610, "ÅŁiv": 6611, "Ġtev": 6612, "ĠamaÃ§lÄ±": 6613, "ĠÄ°lgili": 6614, "okol": 6615, "Ġrel": 6616, "ĠAL": 6617, "isiz": 6618, "Ġyatak": 6619, "okratik": 6620, "Ġgizli": 6621, "Ġsunan": 6622, "âĢĻnda": 6623, "âĢĻÄ": 6624, "ĠCasino": 6625, "Ġhur": 6626, "Ġaraz": 6627, "Ġheyecan": 6628, "Ġdakik": 6629, "ĠgÃ¶nderilen": 6630, "lerindeki": 6631, "elle": 6632, "ĠTarif": 6633, "ĠgÃ¶rÃ¼lmemiÅŁ": 6634, "GeÃ§": 6635, "ĠyapÄ±lmak": 6636, "ELER": 6637, "âĢĻÄ±": 6638, "ĠiÅŁler": 6639, "ĠtaÅŁÄ±nmazlarÄ±n": 6640, "Ġdeprem": 6641, "ĠHasan": 6642, "Karar": 6643, "Ġgelince": 6644, "mali": 6645, "iyel": 6646, "-D": 6647, "Ġtit": 6648, "ĠBaÅŁsavcÄ±lÄ±ÄŁÄ±na": 6649, "celi": 6650, "Ġsayede": 6651, "ĠdÃ¶nÃ¼ÅŁÃ¼m": 6652, "ĠYatÄ±rÄ±m": 6653, "ÃľZELT": 6654, "ĠÃ§iÃ§ek": 6655, "Ã¼ley": 6656, "Ġyetki": 6657, "ydÄ±": 6658, "ĠyÃ¼rÃ¼y": 6659, "LÄ°Äŀ": 6660, "Ġistihdam": 6661, "On": 6662, "ĠsÃ¶zleÅŁme": 6663, "ĠKÄ±brÄ±s": 6664, "ĠÄ°ki": 6665, "ĠBilgi": 6666, "(\\": 6667, "ĠKararÄ±": 6668, "ĠyÄ±ldÄ±z": 6669, "dÄ±rÄ±m": 6670, "Ġdevletin": 6671, "emizde": 6672, "ĠDaÄŁ": 6673, "kur": 6674, "Ġyenilik": 6675, "lanmaktadÄ±r": 6676, "Ġihracat": 6677, "ĠSav": 6678, "Ġkalite": 6679, "Ġgereksin": 6680, "ĠvasÄ±": 6681, "ĠalacaÄŁÄ±": 6682, "Ġyeten": 6683, "ĠsigortalÄ±": 6684, "ĠistediÄŁi": 6685, "ĠÄ°kinci": 6686, "anÄ±m": 6687, "ĠÃ¶rneÄŁinin": 6688, "lerimizi": 6689, "bilmesi": 6690, "ĠZaman": 6691, "ĠCumhuriyeti": 6692, "Ġsec": 6693, "Ġtespitine": 6694, "117": 6695, "Ġhid": 6696, "Ġ\"...": 6697, "ĠÃĩaÄŁ": 6698, "Ä±ÄŁÄ±nda": 6699, "Ġgrafik": 6700, "Ġincelenmesinde": 6701, "147": 6702, "Ġduruma": 6703, "ĠÃ§Ä±karÄ±": 6704, "ĠgÃ¶nderilmesi": 6705, "Ġreak": 6706, "ĠPara": 6707, "Ġhisse": 6708, "ĠSeb": 6709, "Ġbendinde": 6710, "Ġtepk": 6711, "133": 6712, "iyordu": 6713, "Ġserg": 6714, "ĠÃ¼retimi": 6715, "dÃ¼m": 6716, "ĠgÃ¶rÃ¼nÃ¼m": 6717, "tip": 6718, "ĠTEV": 6719, "ĠtarafÄ±n": 6720, "ĠMut": 6721, "ecep": 6722, "madÄ±": 6723, "ĠsoÄŁuk": 6724, "ĠOp": 6725, "Ġsine": 6726, ".**": 6727, "ÃĸL": 6728, "abilmektedir": 6729, "ĠTasar": 6730, "ĠaralÄ±k": 6731, "ĠSch": 6732, "udi": 6733, "ĠyÃ¼kselt": 6734, "ĠÂ±": 6735, "ĠolayÄ±n": 6736, "OB": 6737, "Ġbr": 6738, "ĠbÃ¼yÃ¼m": 6739, "irli": 6740, "Ġsuy": 6741, "ĠyÄ±lÄ±n": 6742, "ĠbulunmamaktadÄ±r": 6743, "Sulh": 6744, "erji": 6745, "ĠtutanaklarÄ±": 6746, "sp": 6747, "ĠUzun": 6748, "ĠYay": 6749, "ĠÄ°ncel": 6750, "Ø§ÙĦ": 6751, "ABD": 6752, "veya": 6753, "ĠbÃ¶lgesinde": 6754, "Ä±lay": 6755, "ĠesnasÄ±nda": 6756, "ĠÅŁeklindeki": 6757, "ĠMo": 6758, "121": 6759, "Ġbilgilendir": 6760, "ĠÃ¶lÃ§ek": 6761, "ĠgÃ¶rdÃ¼ÄŁ": 6762, "ĠbÄ±rakÄ±lmasÄ±na": 6763, "ĠMem": 6764, "gÃ¼ne": 6765, "Ġkendilerini": 6766, "Ġbirbirine": 6767, "ĠÅŀeh": 6768, "ĠkatÄ±ldÄ±": 6769, "Ã¶rd": 6770, "iki": 6771, "ĠDep": 6772, "encer": 6773, "baÅŁkan": 6774, "ayÄ±p": 6775, "Ġoynay": 6776, "leyin": 6777, "ĠdilekÃ§esi": 6778, "ĠUY": 6779, "Ġten": 6780, "Ġgem": 6781, "129": 6782, "Ġmodeli": 6783, "ĠKÃ¼rt": 6784, "Ġzilyet": 6785, "Ġib": 6786, "ĠyansÄ±t": 6787, "Ġnedenler": 6788, "Ġamac": 6789, "ĠLe": 6790, "mu": 6791, "ĠmÃ¼dd": 6792, "ĠmÃ¼n": 6793, "Ġmalzeme": 6794, "itap": 6795, "eÄŁini": 6796, "ĠUS": 6797, "Ġtebligat": 6798, "Ġdaireye": 6799, "ign": 6800, "ick": 6801, "ĠÄ°srail": 6802, "ender": 6803, "ome": 6804, "317": 6805, "BM": 6806, "yu": 6807, "endikten": 6808, "Ġkripto": 6809, "fe": 6810, "ĠSÄ±r": 6811, "ĠGazetede": 6812, "Ġniyet": 6813, "Ġistif": 6814, "ĠSa": 6815, "yol": 6816, "ĠgeÃ§er": 6817, "ĠDeÄŁiÅŁik": 6818, "Ġraporunda": 6819, ">O": 6820, "ÄŁÄ": 6821, "ÄŁÄ±": 6822, "Ġsiyaset": 6823, "Ġkullanan": 6824, "ĠÅŁiÅŁ": 6825, "ĠkÄ±ymet": 6826, "Ġidi": 6827, "isa": 6828, "usunu": 6829, "Ãĩok": 6830, "ĠsuÃ§unun": 6831, "ĠBÄ°R": 6832, "ĠMeclis": 6833, "118": 6834, "ĠiÅŁlemler": 6835, "hum": 6836, "yÄ±z": 6837, "Ġsistemleri": 6838, "Ġkanunun": 6839, "Ġtaban": 6840, "ilmesinin": 6841, "].Ċ": 6842, "Ġikili": 6843, "Ġonlar": 6844, "ĠÄ°nternet": 6845, "Ġrenkli": 6846, "oid": 6847, "ĠJo": 6848, "Ġalmaya": 6849, "Ùĥ": 6850, "ĠbilinÃ§": 6851, "arÄ±m": 6852, "127": 6853, "170": 6854, "ĠGÃĸRÃľÅŀ": 6855, "amazan": 6856, "lemeye": 6857, "ĠÃ§evrim": 6858, "haba": 6859, "ĠÄ°brahim": 6860, "Ġhip": 6861, "Ġlimit": 6862, "Ankara": 6863, "Ġwe": 6864, "Ġvermektedir": 6865, "Ġmahkemesi": 6866, "Ġkimyasal": 6867, "ting": 6868, "ĠkararlarÄ±": 6869, "ĠyasanÄ±n": 6870, "ĠalanlarÄ±": 6871, "ĠdÃ¼ÅŁÃ¼ÅŁ": 6872, "ĠseÃ§enekleri": 6873, "Ġmikro": 6874, "ĠyaÅŁadÄ±ÄŁÄ±": 6875, "Ġevlilik": 6876, "ĠsorunlarÄ±": 6877, "Ġnamaz": 6878, "Ã¼rriyet": 6879, "org": 6880, "laz": 6881, "Ġuygulamaya": 6882, "cili": 6883, "ĠpayÄ±": 6884, "ĠilÃ§e": 6885, "onav": 6886, "ĠrahatsÄ±z": 6887, "Ġmisafir": 6888, "ica": 6889, "Ġgelmektedir": 6890, "Ġherkesin": 6891, ">%": 6892, "ĠDÃľZELT": 6893, "Ne": 6894, "ØŃ": 6895, "131": 6896, "Ġbirbirinden": 6897, "ĠdolaÅŁ": 6898, "Ġadalet": 6899, "insel": 6900, "Ġgecik": 6901, "gÃ¼t": 6902, "Ġlik": 6903, "ĠgeÃ§ildi": 6904, "imum": 6905, "ĠBoy": 6906, "ĠkeÅŁif": 6907, "ĠÃ§Ä±kÄ±yor": 6908, "Ġobj": 6909, "ĠOto": 6910, "Ġkarma": 6911, "leki": 6912, "ĠBelediy": 6913, "Ġtad": 6914, "ĠoluÅŁturul": 6915, "ĠDER": 6916, "ĠmÃ¼dahal": 6917, "ĠatÄ±k": 6918, "GÃ¶r": 6919, "124": 6920, "GereÄŁi": 6921, "Ġbulabilir": 6922, "ĠServ": 6923, "ĠSe": 6924, "Ġbirer": 6925, "pa": 6926, "Ġorada": 6927, "ĠÅŀehir": 6928, "ĠFransa": 6929, "Ġakl": 6930, "Ġep": 6931, "370": 6932, "ĠiliÅŁkisi": 6933, "Ġtef": 6934, "ĠolacaÄŁÄ±nÄ±": 6935, "ati": 6936, "usuna": 6937, "ĠkatÄ±lma": 6938, "bank": 6939, "uzu": 6940, "aylÄ±": 6941, "Ġideal": 6942, "Ġneredeyse": 6943, "Ġborc": 6944, "va": 6945, "Ġuncu": 6946, "Ġbitki": 6947, "meyecek": 6948, "Ġsicil": 6949, "bel": 6950, "Ġblok": 6951, "ĠÃĩan": 6952, "126": 6953, "ÃĩalÄ±ÅŁ": 6954, "ĠÃľÃ§": 6955, "122": 6956, "Ġmaden": 6957, "LIK": 6958, "Ġbulgu": 6959, "Ã¼mÃ¼zdeki": 6960, "Ġanalizi": 6961, "ĠgÃ¶nderilmiÅŁ": 6962, "ĠTat": 6963, "ĠkullandÄ±ÄŁÄ±": 6964, "ĠkartÄ±": 6965, "ĠsÃ¶ylÃ¼yor": 6966, "ope": 6967, "Mer": 6968, "Ġtarihten": 6969, "ĠistiyorsanÄ±z": 6970, "Ġbendi": 6971, "'yÄ±": 6972, "Ġtoz": 6973, "right": 6974, "ĠPartisi": 6975, "ĠHÃ¢k": 6976, "meksizin": 6977, "Ġpres": 6978, "aÄŁÄ±nÄ±n": 6979, "indows": 6980, "Ġgelin": 6981, "ĠÅŁimd": 6982, "Ġanlama": 6983, "ĠyÃ¶r": 6984, "ETÄ°": 6985, "ĠÃĸd": 6986, "ĠanlaÅŁÄ±lan": 6987, "ĠDergisi": 6988, "ĠBÃ¶lÃ¼m": 6989, "Ġturizm": 6990, "DiÄŁer": 6991, "Ġdiffer": 6992, "ĠDavalÄ±": 6993, "ĠalacaklarÄ±nÄ±n": 6994, "ĠfarkÄ": 6995, "ĠfarkÄ±": 6996, "ĠBaÅŁbakan": 6997, "ĠKÃ¶yÃ¼": 6998, "Ġmuk": 6999, "droid": 7000, "ĠÄ°Ä°K": 7001, "ĠoranlarÄ±": 7002, "ĠSil": 7003, "eÄŁinde": 7004, "Ġaral": 7005, "ĠÃ§alÄ±ÅŁtÄ±ÄŁÄ±": 7006, "rag": 7007, "Ġordu": 7008, "ĠkarÅŁÄ±lÄ±ÄŁÄ±": 7009, "Ġyenilen": 7010, "eff": 7011, "ĠgeliÅŁmiÅŁ": 7012, "ĠsaÄŁlam": 7013, "esis": 7014, "ĠKav": 7015, "ĠOrgan": 7016, "ĠAile": 7017, "ĠKara": 7018, "ĠYargÄ±tayca": 7019, "ĠkullanÄ±labilir": 7020, "Ġroman": 7021, "ĠhakkÄ±nÄ±n": 7022, "ĠÃ¼lkeler": 7023, "ĠpaylaÅŁÄ±m": 7024, "135": 7025, "Haber": 7026, "ĠÅŁartlarÄ±": 7027, "abilen": 7028, "DoÄŁ": 7029, "acaÄŁÄ±nÄ±z": 7030, "âĢĻdaki": 7031, "DIR": 7032, "Ġistemi": 7033, "itir": 7034, "roup": 7035, "Ġsahn": 7036, "ween": 7037, "ĠeÅŁi": 7038, "Ġpozitif": 7039, "-A": 7040, "ĠaralarÄ±nda": 7041, "ĠMÃ¼ÅŁter": 7042, "Ġsonuca": 7043, "Ġiptaline": 7044, "ĠSayÄ±n": 7045, "omet": 7046, "ĠsÄ±nÄ±rÄ": 7047, "ĠsÄ±nÄ±rÄ±": 7048, "simum": 7049, "ĠCem": 7050, "ĠsÃ¶yleyen": 7051, "engi": 7052, "Ġsiyah": 7053, "Ġrep": 7054, "Ġbelirgin": 7055, "Ġmay": 7056, "enci": 7057, "alel": 7058, "Genel": 7059, "leket": 7060, "ĠSek": 7061, "ĠcezasÄ±na": 7062, "yn": 7063, "ĠTam": 7064, "ĠiÅŁtir": 7065, "Ġokuma": 7066, "Ġzek": 7067, "ĠhesabÄ±": 7068, "ĠMac": 7069, "ree": 7070, "ĠdÄ±ÅŁÄ±ndaki": 7071, "ĠVergi": 7072, "UT": 7073, "ĠbeÄŁen": 7074, "AH": 7075, "adet": 7076, "Ã¼leyman": 7077, "ĠzamanÄ±": 7078, "lunun": 7079, "ĠhÃ¼kmÃ¼ne": 7080, "Ãĸr": 7081, "Ġfatura": 7082, "ĠsanÄ±klarÄ±n": 7083, "Ã§eli": 7084, "Ġvadeli": 7085, "ĠHÃ¼seyin": 7086, "lÃ¢m": 7087, "Ġzir": 7088, "ĠÅŁehit": 7089, "ayfa": 7090, "-G": 7091, "ĠErz": 7092, "Ġeb": 7093, "ĠTabi": 7094, "ĠgÃ¼Ã§lendir": 7095, "uluÄŁ": 7096, "sh": 7097, "Ġhe": 7098, "allah": 7099, "lÃ¼lÃ¼ÄŁ": 7100, "ĠgÃ¶nderilmek": 7101, "ĠMobil": 7102, "Ġzorunluluk": 7103, "ĠyÄ±llar": 7104, "ĠMuhammed": 7105, "Ġmahsub": 7106, "ĠIrak": 7107, "ĠyaÅŁÄ±nda": 7108, "EO": 7109, "ĠdÃ¼ÅŁen": 7110, "ĠalmasÄ±": 7111, "ĠuÃ§uÅŁ": 7112, "-a": 7113, "SanÄ±ÄŁÄ±n": 7114, "illa": 7115, "ĠgerektirmediÄŁinden": 7116, "ĠBÃ¼tÃ¼n": 7117, "Ġevr": 7118, "ĠgÃ¶zlen": 7119, "ĠolduÄŁumuz": 7120, "ĠgeÃ§ti": 7121, "abilm": 7122, "ĠtÃ¼ketic": 7123, "ĠKÄ±lÄ±Ã§": 7124, "Ġkapasit": 7125, "ĠkoÅŁullarÄ±": 7126, "Ġaltyap": 7127, "Ġmaruz": 7128, "ĠÃ¶rt": 7129, "ĠdeÄŁerinin": 7130, "ĠHastanesi": 7131, "ĠÄ°bn": 7132, "Ġtipi": 7133, "Ġlir": 7134, "ebiliyor": 7135, "ĠiyileÅŁtir": 7136, "ĠGiriÅŁ": 7137, "kel": 7138, "ĠÃ¼yelik": 7139, "Ġmekt": 7140, "ĠanlatÄ±m": 7141, "Ãľr": 7142, "ĠMurat": 7143, "car": 7144, "ĠHÄ±rsÄ±zlÄ±k": 7145, "Ġetik": 7146, "ĠkolaylaÅŁtÄ±r": 7147, "kiÅŁehir": 7148, "ĠtÃ¶ren": 7149, "diÄŁiniz": 7150, "Ġincelendikten": 7151, "arik": 7152, "ĠGÃ¶re": 7153, "188": 7154, "ĠÄ°le": 7155, "ĠsaÄŁlÄ±yor": 7156, "ĠGÃ¼zel": 7157, "Uz": 7158, "ĠolduklarÄ±nÄ±": 7159, "Ġsonuna": 7160, "ĠkaybÄ": 7161, "ĠkaybÄ±": 7162, "Ġolas": 7163, "cial": 7164, "Ġprotein": 7165, "ĠÃĸZ": 7166, "Ã¼yada": 7167, "145": 7168, "Ġtarihinin": 7169, "ĠbÃ¶lÃ¼mde": 7170, "ĠÄ°L": 7171, "ĠFatih": 7172, "maktÄ±r": 7173, "ĠBaÅŁkanlÄ±k": 7174, "ĠkadÄ±nlar": 7175, "ĠÃľl": 7176, "340": 7177, "Ġmezun": 7178, "Ä±nÄ±zÄ±n": 7179, "ĠmÃ¼r": 7180, "ĠiÃ§eriÄŁi": 7181, "ĠinsanlarÄ±": 7182, "lerdeki": 7183, "ĠKir": 7184, "ĠES": 7185, "Ġsinyal": 7186, "oks": 7187, "Ġkuzey": 7188, "ĠtazminatÄ±n": 7189, "Ġsisteminin": 7190, "ader": 7191, "ĠuygulamalarÄ±": 7192, "ĠtÄ±r": 7193, "eta": 7194, "ĠDÃľÅŀ": 7195, "lÄ±ca": 7196, "Ġeve": 7197, "ĠCar": 7198, "Ġgenelinde": 7199, "ĠÃ§ekiÅŁmeli": 7200, "avi": 7201, "ĠkullanÄ": 7202, "ĠkullanÄ±": 7203, "tÃ¼rk": 7204, "ĠKaynak": 7205, "Bak": 7206, "ÄŁur": 7207, "Ġboya": 7208, "Ġert": 7209, "ĠkullanÄ±lmaktadÄ±r": 7210, "Ġyenil": 7211, "ĠkÄ±smÄ±nÄ±n": 7212, "ĠhayatÄ±": 7213, "altÄ±na": 7214, "134": 7215, "ities": 7216, "ĠHes": 7217, "gaz": 7218, "ETÃĸ": 7219, "ĠÃĩÄ±k": 7220, "Ġ\\\\": 7221, "das": 7222, "ĠOdasÄ±": 7223, "Ġtutanaklar": 7224, "ĠMon": 7225, "bÃ¶lÃ¼mÃ¼": 7226, "Ġbentte": 7227, "edeni": 7228, "Ġmor": 7229, "ĠhÃ¢linde": 7230, "Ġsalon": 7231, "Ã¶rdÃ¼ncÃ¼": 7232, "ĠÅŁarkÄ±": 7233, "unuzu": 7234, "otik": 7235, "Ġiddian": 7236, "Ġenflasyon": 7237, "mekle": 7238, "ĠMuhakemesi": 7239, "distan": 7240, "miÅŁlerdir": 7241, "ĠsÃ¶zÃ¼": 7242, "ĠÂ°": 7243, "Ġarab": 7244, "ĠkaydÄ±nÄ±n": 7245, "Ġkampanya": 7246, "lÃ®": 7247, "Ġmol": 7248, "lerince": 7249, "ĠMic": 7250, "ulacak": 7251, "Ġmodelleri": 7252, "ĠiÅŁlemlerin": 7253, "acaÄŁÄ±na": 7254, "Ġistenen": 7255, "uluyor": 7256, ">Tablo": 7257, "ose": 7258, "ds": 7259, "ĠCen": 7260, "ĠtÃ¼rk": 7261, "ĠÃ¼yeleri": 7262, "ges": 7263, "Ġmakal": 7264, "Ġhissed": 7265, "ris": 7266, "ĠsaÄŁlama": 7267, "Ã½": 7268, "Ġyetenek": 7269, "ĠGaziantep": 7270, "LÄ°K": 7271, "Ġlezzet": 7272, "ĠPiyas": 7273, "ue": 7274, "ĠÅŁeker": 7275, "Ġvd": 7276, "ukatÄ±": 7277, "Ġsebepten": 7278, "ĠHava": 7279, "ĠSaat": 7280, "Ġverimli": 7281, "errah": 7282, "IS": 7283, "yÄ±m": 7284, "ĠÄ°liÅŁkin": 7285, "Ġbesin": 7286, "DÃ¼nya": 7287, "ĠÄ°ST": 7288, "ĠLi": 7289, "ely": 7290, "ĠÅŁunlarÄ±": 7291, "442": 7292, "ĠÄ°Ãĩ": 7293, "Ġetkileri": 7294, "ning": 7295, "143": 7296, "CA": 7297, "tral": 7298, "Ġimp": 7299, "elop": 7300, "ĠPat": 7301, "cer": 7302, "ĠaÄŁrÄ": 7303, "ĠaÄŁrÄ±": 7304, "Ġmur": 7305, "ĠKitap": 7306, "sum": 7307, "Ġbinlerce": 7308, "ĠkadÄ±nlarÄ±n": 7309, "OT": 7310, "lec": 7311, "Ġyed": 7312, "ĠKamulaÅŁtÄ±rma": 7313, ">V": 7314, "ĠÃĸmer": 7315, "Ġediliyor": 7316, "ĠBÃ¶lg": 7317, "ĠbÃ¶": 7318, "ĠBirleÅŁ": 7319, "Ġettikleri": 7320, "ĠMilletvekili": 7321, "ceÄŁi": 7322, "ametr": 7323, "ĠDÃ¼zen": 7324, "oÄŁaz": 7325, "cr": 7326, "ĠVan": 7327, "Ġbahset": 7328, "ĠulaÅŁÄ±m": 7329, "Ġmakam": 7330, "ĠsanÄ±ÄŁa": 7331, "Ã¶lÃ§": 7332, "ĠSistemi": 7333, "ĠyanÄ±l": 7334, "ĠlÃ¼t": 7335, "Ġkabil": 7336, "Hal": 7337, "ĠyÄ±lÄ±ndan": 7338, "Ġekipleri": 7339, "ilerle": 7340, "mun": 7341, "ĠÃ¼cretin": 7342, "Ġhab": 7343, "Ġvs": 7344, "ĠÃ§alÄ±ÅŁmaya": 7345, "Ġsenin": 7346, "Ġsebepleri": 7347, "ĠoluÅŁturduÄŁu": 7348, "ĠEnstitÃ¼sÃ¼": 7349, "Ġismi": 7350, "-d": 7351, "IV": 7352, "Ġset": 7353, "ĠtatlÄ±": 7354, "ĠkullanÄ±la": 7355, "Ġisteminde": 7356, "ĠTÃ¼k": 7357, "ĠbaÅŁlama": 7358, ")$": 7359, "Ġkons": 7360, "onavirÃ¼s": 7361, "cÄ±k": 7362, "*</": 7363, "ĠKuzey": 7364, "acaÄŁÄ±m": 7365, "lerim": 7366, "ĠcoÄŁraf": 7367, "Ġmekaniz": 7368, "Ġces": 7369, "Ùĳ": 7370, "ĠtanÄ±ÅŁ": 7371, "ebilmektedir": 7372, "santr": 7373, "ĠnoktasÄ±": 7374, "ĠayrÄ±ntÄ±lÄ±": 7375, "andar": 7376, "ĠTurizm": 7377, "ĠBeÅŁiktaÅŁ": 7378, "ĠsayÄ±larÄ±": 7379, "ĠgÃ¶rÃ¼lmediÄŁinden": 7380, "ĠYet": 7381, "'nden": 7382, "adir": 7383, "ĠTic": 7384, "Ä°LEREK": 7385, "ĠdavasÄ±ndan": 7386, "ĠkavuÅŁ": 7387, "lanÄ±yor": 7388, ">R": 7389, "ĠbÃ¼nyesinde": 7390, "ĠbaÄŁlamda": 7391, "Ġaktivit": 7392, "Ġdini": 7393, "ĠØ¯": 7394, "ĠCuma": 7395, "ĠsÄ±vÄ": 7396, "ĠsÄ±vÄ±": 7397, "sir": 7398, "ĠtebliÄŁinden": 7399, "ĠRecep": 7400, "Ġdiyen": 7401, "yip": 7402, "port": 7403, "ĠdÃ¼nyaya": 7404, "reat": 7405, "ĠÃ§ekici": 7406, "ĠÃ¶y": 7407, "ĠÃ¶t": 7408, "ĠsÄ±fatÄ±": 7409, "Ġsend": 7410, "ĠNedir": 7411, "adÄ±n": 7412, "ĠPolitik": 7413, "abiliriz": 7414, "Gerek": 7415, "Ġistis": 7416, "dition": 7417, "ĠgÃ¼venliÄŁi": 7418, "ĠsÃ¼s": 7419, "ĠbÃ¼yÃ¼me": 7420, "ĠModel": 7421, "Ġnis": 7422, "Ġkahv": 7423, "urta": 7424, "ĠdayanÄ±k": 7425, "ĠyapÄ±ldÄ±ÄŁÄ±nÄ±": 7426, "raz": 7427, "ĠniteliÄŁine": 7428, "_i": 7429, "ĠsÃ¼ren": 7430, "Ä°nsan": 7431, "Ġrefer": 7432, "ahmet": 7433, "ĠBe": 7434, "oplam": 7435, "hy": 7436, "Ġtemsilc": 7437, "ĠyayÄ±mlanan": 7438, "ĠBilim": 7439, "Ġdokunulmaz": 7440, "Ġnaf": 7441, "mation": 7442, "ĠalÄ±nmÄ±ÅŁtÄ±r": 7443, "Ġkesi": 7444, "ĠTut": 7445, "ĠÃľzer": 7446, "cal": 7447, "ĠEmniyet": 7448, "187": 7449, "ĠadÄ±nÄ±": 7450, "ĠSonra": 7451, "ces": 7452, "âĢĻdeki": 7453, "Ġmetrek": 7454, "ĠbaÅŁkanÄ±": 7455, "Ġbirini": 7456, "ĠyerleÅŁim": 7457, "ĠAN": 7458, "ĠGÃ¶l": 7459, "189": 7460, "ĠyaptÄ±rÄ±m": 7461, "ang": 7462, "Ġforex": 7463, "}}": 7464, "Ġverilecek": 7465, "ebi": 7466, "Ø©": 7467, "ĠKayseri": 7468, "TR": 7469, "371": 7470, "Ġhesaplama": 7471, "ĠolmalarÄ±": 7472, "ĠÄ°ngilizce": 7473, "ung": 7474, "ĠbarÄ±ÅŁ": 7475, "Ġinceley": 7476, "Ġyerli": 7477, "ilmez": 7478, "ĠgerekÃ§elere": 7479, "ĠsarÄ±": 7480, "ĠduruÅŁmaya": 7481, "'nÃ¼n": 7482, "ĠYÄ±ldÄ±rÄ±m": 7483, "lukla": 7484, "ĠMey": 7485, "ĠÃ¼rÃ¼nlerin": 7486, "Ġsorunun": 7487, "Ġmuhtem": 7488, "hen": 7489, "Ã¢yet": 7490, "ĠKer": 7491, "HÃ¼kmÃ¼n": 7492, "Ġsist": 7493, "umaÅŁ": 7494, "Ġtoplumun": 7495, "Ġall": 7496, "ĠkomÅŁu": 7497, "ĠPeki": 7498, "ance": 7499, "ĠFÄ±r": 7500, "ĠGalatasaray": 7501, "ĠyaÅŁlÄ±": 7502, "talama": 7503, "Ġoyunc": 7504, "lish": 7505, "Ġaran": 7506, "Ġbulmak": 7507, "tib": 7508, "ĠDosya": 7509, "Ġsergil": 7510, "Ġzemin": 7511, "ĠCanlÄ±": 7512, "adastr": 7513, "ĠhazÄ±rlÄ±k": 7514, "ĠalanÄ±n": 7515, "ĠiÃ§erir": 7516, "demir": 7517, "tikten": 7518, "Ġalso": 7519, "Ġdevir": 7520, "Ø§ÙĨ": 7521, "ĠTÃ¼r": 7522, "earch": 7523, "ĠavukatÄ±": 7524, "Ġkazanma": 7525, "Tarih": 7526, "emektedir": 7527, "kor": 7528, "ĠÅŀti": 7529, "ĠalÄ±nÄ±r": 7530, "Ġdi": 7531, "Ġakadem": 7532, "ĠÙģ": 7533, "ld": 7534, "168": 7535, "ĠAKP": 7536, "mÄ±ÅŁlardÄ±r": 7537, "Somut": 7538, "ĠgeliÅŁme": 7539, "-F": 7540, "Ġisteme": 7541, "ĠÃ¶ncesinde": 7542, "ox": 7543, "ĠalacaklÄ±": 7544, "Ġgetirdi": 7545, "ĠakÄ±m": 7546, "Ġhukuksal": 7547, "ĠÃ¶zetle": 7548, "aÄŁÄ±nÄ±": 7549, "ĠÃ¶zgÃ¼": 7550, ".:": 7551, "Ġbakiye": 7552, "sem": 7553, "del": 7554, "Ġyakal": 7555, "eceÄŁim": 7556, "ĠsanatÃ§Ä±": 7557, "ĠKons": 7558, "Ġtescili": 7559, "Ġka": 7560, "Ġfac": 7561, "Ġsahte": 7562, "ĠGÃ¼nÃ¼": 7563, "Ġalanlarda": 7564, "Ġtesti": 7565, "ĠTaraf": 7566, "Ġ?": 7567, "Ġother": 7568, "136": 7569, "**Ċ": 7570, "ĠJap": 7571, "ĠEski": 7572, "Ġpratik": 7573, "Ġticareti": 7574, "ĠÃ¼niversite": 7575, "lanabilir": 7576, "iyorlar": 7577, "Ġvade": 7578, "ĠdeÄŁiÅŁimi": 7579, "ĠhÃ¼kÃ¼mden": 7580, "ash": 7581, "Ġdip": 7582, "ĠYork": 7583, ".G": 7584, "rist": 7585, "ĠMu": 7586, "cm": 7587, "lerimizin": 7588, "Ġpazarlama": 7589, "zim": 7590, "ĠgÃ¶rÃ¼ÅŁmeler": 7591, "ournal": 7592, "Ãĩocuk": 7593, "AÄŁ": 7594, "Ġanket": 7595, "151": 7596, "des": 7597, "ĠgÃ¼ndeme": 7598, "ĠhÄ±zÄ±": 7599, "osk": 7600, "-P": 7601, "ĠfaydalÄ±": 7602, "ĠaÄŁÄ±rlÄ±k": 7603, "ĠDin": 7604, "SaÄŁ": 7605, "ĠdÄ±ÅŁÄ±na": 7606, "Ġnazara": 7607, "resyon": 7608, "ory": 7609, "158": 7610, "ĠhÃ¼kÃ¼mlÃ¼": 7611, "UZ": 7612, "ĠsÃ¼reÃ§te": 7613, "Ġdoz": 7614, "ĠÄ°letiÅŁim": 7615, "ĠKil": 7616, "Ġku": 7617, "LÄ°YE": 7618, "ĠÃ¼cretine": 7619, "ĠyakÄ±ndan": 7620, "ĠGÃ¶rev": 7621, "ĠTablo": 7622, "ĠAdÄ±": 7623, "Ã¢b": 7624, "âĢĻna": 7625, "155": 7626, "ĠalÄ±cÄ±": 7627, "Ġdeliller": 7628, "Ġkesinlik": 7629, "ĠendÃ¼str": 7630, "ĠÃ§ekme": 7631, "bey": 7632, "lemektedir": 7633, "ĠamaÃ§la": 7634, "ĠiÅŁyeri": 7635, "Ġadliye": 7636, "Ã¶rÃ¼": 7637, "ĠbahÃ§": 7638, "Ã¼lerek": 7639, "Ġikram": 7640, "adeniz": 7641, "oft": 7642, "ĠÃ¶nemi": 7643, "ĠsÄ±kÄ": 7644, "ĠsÄ±kÄ±": 7645, "ĠFer": 7646, "Ġtoplant": 7647, "Ġverilere": 7648, "310": 7649, "ĠgerektiÄŁinin": 7650, "ĠgerekÃ§esi": 7651, "TÃľRK": 7652, "ĠkarÅŁÄ±ya": 7653, "ĠanÄ±nda": 7654, "138": 7655, "ĠlÃ¼tfen": 7656, "Ġkonak": 7657, "tain": 7658, "ĠEfendi": 7659, "ori": 7660, "ĠLisans": 7661, "ĠbaÅŁlÄ±yor": 7662, "ĠyÃ¶ntemleri": 7663, "366": 7664, "ĠGeÃ§ici": 7665, "ĠdÃ¼ÅŁÃ¼nÃ¼yorum": 7666, "ĠDairemizce": 7667, ");": 7668, "ĠmÃ¼vekkili": 7669, "260": 7670, "ĠFransÄ±z": 7671, "ĠgeniÅŁlet": 7672, "ĠalÄ±nacak": 7673, "Ġtarafa": 7674, "ĠArkadaÅŁ": 7675, "ĠDers": 7676, "ĠyangÄ±n": 7677, "ĠEb": 7678, "AÅŁ": 7679, "aiz": 7680, "ĠYazÄ±": 7681, "Ġbozmaya": 7682, "Ġihal": 7683, "ĠbelirtilmiÅŁtir": 7684, "ĠyÃ¼rÃ¼tÃ¼len": 7685, "Ġbetween": 7686, "satÄ±": 7687, "lass": 7688, "ĠhÃ¢k": 7689, "ĠoluÅŁur": 7690, "137": 7691, "ĠErkek": 7692, "ĠÅŁub": 7693, "Ġkonularda": 7694, "ĠkÄ±yas": 7695, "Ġharek": 7696, "ĠÄ°Åŀ": 7697, "185": 7698, "Ä°ST": 7699, "}^{": 7700, "ĠyapÄ±lmasÄ±na": 7701, "iyatro": 7702, "Ġmetre": 7703, "ĠDÃľZELTÄ°LEREK": 7704, "152": 7705, "ĠFacebook": 7706, "ĠÃľn": 7707, "emizin": 7708, "ĠYerel": 7709, "Ġdefter": 7710, "ĠgÃ¶rÃ¼ldÃ¼ÄŁÃ¼": 7711, "Ġtesciline": 7712, "Ġdemektir": 7713, "Ġbilgisi": 7714, "afer": 7715, "usuz": 7716, "ĠZir": 7717, "Ġiktidar": 7718, "'Ã¼": 7719, "likte": 7720, "ĠhastalÄ±ÄŁÄ±": 7721, "ĠtartÄ±ÅŁma": 7722, "Ġseviye": 7723, "lex": 7724, "otel": 7725, "dava": 7726, "Ġmg": 7727, "asÄ±z": 7728, "tÄ±n": 7729, "Ġsakin": 7730, "lÄ±lÄ±ÄŁÄ±": 7731, "Ġzincir": 7732, "ĠZira": 7733, "ĠolduÄŁunda": 7734, "mad": 7735, "Ġpros": 7736, "eth": 7737, "ĠkÄ±smÄ±nda": 7738, "Ġkarbon": 7739, "ĠdayanaÄŁÄ±": 7740, "Oy": 7741, "Ġilgil": 7742, "bileceÄŁi": 7743, "Ġsos": 7744, "parator": 7745, "ĠgÃ¶l": 7746, "ĠÃ¼lkemizde": 7747, "ĠkullanÄ±cÄ±larÄ±n": 7748, "Ġeff": 7749, "aus": 7750, "ĠPaz": 7751, "ĠNaz": 7752, "Ġbirine": 7753, "Ġaj": 7754, "teryal": 7755, "Ġbilet": 7756, "isin": 7757, "math": 7758, "ĠHatta": 7759, "elp": 7760, "deb": 7761, "ĠYen": 7762, "ilerinden": 7763, "Ġkonul": 7764, "ĠTab": 7765, "ĠyumuÅŁ": 7766, "ĠsÄ±fÄ±r": 7767, "ĠiÅŁbirliÄŁi": 7768, "ĠCad": 7769, "utu": 7770, ">+</": 7771, "ĠÃ¼ncÃ¼": 7772, "ĠSayfa": 7773, "ĠiÅŁgal": 7774, "ĠÃ¶zellikler": 7775, "Ġsilin": 7776, "ĠsÃ¼rÃ¼cÃ¼": 7777, "ml": 7778, "ould": 7779, "144": 7780, "ĠdÃ¼ÅŁman": 7781, "tuÄŁ": 7782, "Ġdemokras": 7783, "157": 7784, "ĠFar": 7785, "ĠNak": 7786, "ĠSÃ¼leyman": 7787, "Ġbeklenen": 7788, "meyin": 7789, "ĠiÅŁleri": 7790, "ayÄ±cÄ±": 7791, "ĠDestek": 7792, "ĠSÃľR": 7793, "Ġ''": 7794, "ĠHe": 7795, "oo": 7796, "has": 7797, "Ġyalan": 7798, "laÅŁÄ±k": 7799, "ĠgelmiÅŁtir": 7800, "'ndan": 7801, "Ġparalel": 7802, "Ġsigara": 7803, "ĠolasÄ±": 7804, "Ġport": 7805, "ific": 7806, "mÃ¼ÅŁtÃ¼r": 7807, "Ġmetin": 7808, "179": 7809, "Ã§Ä±lÄ±k": 7810, "diklerini": 7811, "ĠTrabzon": 7812, "ĠharcÄ±": 7813, "ĠÃ§aÄŁr": 7814, "YOR": 7815, "ende": 7816, "ansÄ±z": 7817, "Ġalabilirsiniz": 7818, "Ġbakan": 7819, "Ġsebeplerden": 7820, "Ġanahtar": 7821, "ĠKontrol": 7822, "Ġetken": 7823, "Phone": 7824, "Ġolunca": 7825, "ĠBahis": 7826, "ĠSON": 7827, "ĠgÃ¼nÃ¼mÃ¼zde": 7828, "ĠyÃ¶nel": 7829, "Ġrestor": 7830, "nan": 7831, "ĠkullanÄ±lmÄ±ÅŁtÄ±r": 7832, "ĠsayÄ±sÄ±nÄ±n": 7833, "ĠDik": 7834, "ĠGÃ¶rÃ¼n": 7835, "ĠolmadÄ±ÄŁÄ±nÄ±n": 7836, "landa": 7837, "ĠgÃ¼nÃ¼mÃ¼z": 7838, "isyen": 7839, "teÅŁ": 7840, "Ġsana": 7841, "ĠtÄ±p": 7842, "Ġesnaf": 7843, "Ġoyunun": 7844, "celikle": 7845, "165": 7846, "ĠiÅŁleme": 7847, "ĠmÃ¼dafii": 7848, "ECE": 7849, "latma": 7850, "149": 7851, "Ġkadastr": 7852, "iplin": 7853, "kray": 7854, "amam": 7855, "Ġyaprak": 7856, "Ġkapsamda": 7857, "ĠYok": 7858, "ĠEtk": 7859, "Ġrakip": 7860, "ĠÃĸÄŁretim": 7861, "ĠGazetesi": 7862, "Ġtemas": 7863, "ĠnoktasÄ±nda": 7864, "ĠhakkÄ±nÄ±": 7865, "minin": 7866, ">%</": 7867, "ĠCam": 7868, "Ġkurumsal": 7869, "madÄ±ÄŁÄ±nÄ±": 7870, "Ġhususlar": 7871, "Ã¼lmÃ¼ÅŁtÃ¼r": 7872, "LERÄ°N": 7873, "EÄŁer": 7874, "CEL": 7875, "139": 7876, "Ä°ncel": 7877, "ĠgÃ¶rÃ¼lÃ¼r": 7878, "Ġmemleket": 7879, "ĠØ¹": 7880, "otal": 7881, "Vicdani": 7882, "ĠÃ¼stlen": 7883, "ĠNeden": 7884, "ĠDiyarbakÄ±r": 7885, "ĠMÄ±sÄ±r": 7886, "ĠBelir": 7887, "Ġyerlerde": 7888, "own": 7889, "ĠYAP": 7890, "ĠkiÅŁiyi": 7891, "Ġpetrol": 7892, "-s": 7893, "ĠYapÄ": 7894, "ĠYapÄ±": 7895, "ĠÃ§Ã¶zÃ¼mÃ¼": 7896, "Ġseri": 7897, "ĠkaldÄ±rÄ±lmasÄ±": 7898, "ĠhalkÄ±n": 7899, "465": 7900, "olat": 7901, "CH": 7902, "Ġkazanmak": 7903, "ĠFenerbahÃ§e": 7904, "Ġbilgiye": 7905, "ĠgÃ¼ney": 7906, "ĠBÄ°L": 7907, "ĠsunmaktadÄ±r": 7908, "ĠkiÅŁilere": 7909, "Ġmateryal": 7910, "uru": 7911, "Ġbom": 7912, "ĠsektÃ¶rÃ¼nde": 7913, "ediler": 7914, "ĠbilirkiÅŁ": 7915, "Kaynak": 7916, "ĠSohbet": 7917, "Ä±nan": 7918, "ĠBizim": 7919, "Ġedici": 7920, "Ġnumara": 7921, "Ġsorunlar": 7922, "ĠAndroid": 7923, "ĠimkÃ¢n": 7924, "257": 7925, "Ġevvel": 7926, "ĠBundan": 7927, "ĠaÅŁÄ": 7928, "ĠÃ¼retilen": 7929, "ĠaÅŁÄ±": 7930, "Ġzorluk": 7931, "Ġifadelerini": 7932, "ĠPKK": 7933, "ĠYah": 7934, "Ġkg": 7935, "ĠbakÄ±mdan": 7936, "olar": 7937, "iyiz": 7938, "zat": 7939, "ĠaldÄ±ÄŁÄ±nÄ±": 7940, "ĠKomut": 7941, "Â°C": 7942, "Ä±rÄ±m": 7943, "ization": 7944, "ĠÅŁÄ±k": 7945, "ĠTemel": 7946, "146": 7947, "ĠbÄ": 7948, "ruk": 7949, "ograf": 7950, "ym": 7951, "ĠMahkeme": 7952, "rasÄ±": 7953, "teyiz": 7954, "Ġverici": 7955, "Ġpp": 7956, "ĠalÄ±nÄ±": 7957, "ĠvirÃ¼s": 7958, "Ġalak": 7959, "ĠÄ°liÅŁk": 7960, "ĠNet": 7961, "Ġegz": 7962, "Ġsup": 7963, "175": 7964, "landÄ±rma": 7965, "ule": 7966, "Resim": 7967, "ĠÄ±slah": 7968, "Ġhali": 7969, "ASI": 7970, "Ġhediye": 7971, "ĠhÃ¼kmol": 7972, "Ġistiyoruz": 7973, "Ġsever": 7974, "Ġkalem": 7975, "ĠÃ§eÅŁ": 7976, "cÃ¼k": 7977, "ĠyÃ¼zÃ¶lÃ§": 7978, "ĠgÃ¶rÃ¼r": 7979, "ko": 7980, "Ġkumar": 7981, "ĠGaz": 7982, "Ġkriter": 7983, "ĠkesinleÅŁen": 7984, "Ġalkol": 7985, "Ġeksiksiz": 7986, "manÄ±za": 7987, "ĠAna": 7988, "ĠEuro": 7989, "Ġbuy": 7990, "Ġgerektiren": 7991, "anda": 7992, "LEN": 7993, "ĠgÃ¶steriyor": 7994, "tren": 7995, "laÅŁmasÄ±": 7996, "lobal": 7997, "Ġmuhaf": 7998, "Ġyolcu": 7999, "Ġgetirmek": 8000, "ĠÌ": 8001, "Ġedilip": 8002, "ĠHiÃ§": 8003, "GK": 8004, "Ġgirdi": 8005, "alpha": 8006, "Ġkenar": 8007, "Ġvererek": 8008, "ĠKUR": 8009, "Ġnumun": 8010, "enen": 8011, "Ġkaydetti": 8012, "ĠKent": 8013, "ĠolduÄŁunuz": 8014, "ivas": 8015, "ĠGar": 8016, "ĠSÄ±nÄ±f": 8017, "ĠiÅŁtirak": 8018, "ĠusulÃ¼ne": 8019, "ĠilamÄ": 8020, "ĠilamÄ±": 8021, "ĠalÄ±ndÄ±ÄŁÄ±": 8022, "Ġlok": 8023, "Ġkulak": 8024, "Ø§Ø": 8025, "ĠElektrik": 8026, "800": 8027, "ĠmahkÃ»miyet": 8028, ">Toplam": 8029, "ull": 8030, "ĠiÅŁverenin": 8031, "ĠanlaÅŁÄ±lmÄ±ÅŁ": 8032, "174": 8033, "Ã¼ksek": 8034, "esih": 8035, "Ġbuz": 8036, "ĠcivarÄ±nda": 8037, "ĠToplum": 8038, "Ġbeb": 8039, "Ġtok": 8040, "ĠsaÄŁlamaktadÄ±r": 8041, "Ð¾": 8042, "Ġaksine": 8043, "ĠgÃ¶zaltÄ±na": 8044, "ebilen": 8045, "Ġaraba": 8046, "Ġprotokol": 8047, "Tr": 8048, "ĠSelÃ§uk": 8049, "ĠFen": 8050, "ects": 8051, "Ġyolunda": 8052, "ĠteÅŁeb": 8053, "ĠgerektiÄŁine": 8054, "Ġmahkumiyetine": 8055, "Ġris": 8056, "Ġdoku": 8057, "ĠOnun": 8058, "Ġraporla": 8059, "ĠatÄ±lan": 8060, ".m": 8061, "Ey": 8062, "ĠÄ°smail": 8063, "ĠKAL": 8064, "ĠÅŁeyin": 8065, "ĠHizmetleri": 8066, "Ġklasik": 8067, "Ã¼ldÃ¼ÄŁÃ¼": 8068, "Ġverileri": 8069, "Ġkonsantr": 8070, "ĠbozulmasÄ±na": 8071, "Ġfelsef": 8072, "Ġibaresinin": 8073, "Ġnedenlere": 8074, "ĠKaÃ§": 8075, "ĠDeÄŁerlendirme": 8076, "ĠAkdeniz": 8077, "ildikten": 8078, "ĠGÃ¶n": 8079, "Ġaittir": 8080, "Ġyitir": 8081, "Ã»l": 8082, "'Ċ": 8083, "iminin": 8084, "asal": 8085, "teÅŁem": 8086, "Ġsinir": 8087, "ĠkararlarÄ±n": 8088, "Ġthey": 8089, "ĠtÃ¼zel": 8090, "Ġvermeye": 8091, "Ġkendisinin": 8092, "ĠKredi": 8093, ">L": 8094, "Ġhalka": 8095, "Ġslot": 8096, "ÄŀI": 8097, "Ä±mÄ±nÄ±n": 8098, "aw": 8099, "148": 8100, "ĠÙĦ": 8101, "Ġteminat": 8102, "ĠbÃ¼tÃ§": 8103, "ĠDAVA": 8104, "Ġkanser": 8105, "ĠzamanÄ±nda": 8106, "Ġone": 8107, ".Hukuk": 8108, "osyanÄ±n": 8109, "Ġsitesinde": 8110, "ĠgÃ¶sterdiÄŁi": 8111, "ØĮ": 8112, "old": 8113, "ĠTayyip": 8114, "ĠmÃ¼hendis": 8115, "onal": 8116, "vir": 8117, "153": 8118, "485": 8119, "ĠbaÅŁlayarak": 8120, "BugÃ¼n": 8121, "ĠHakem": 8122, "166": 8123, "ĠÃľlk": 8124, "CAK": 8125, "ĠÅŁampiyon": 8126, "ĠYaÄŁ": 8127, "ĠsunduÄŁu": 8128, "graf": 8129, "iliÄŁini": 8130, "ĠÃĸlÃ§": 8131, "Ġheps": 8132, "Ġfilmi": 8133, "Ġkorumak": 8134, "Ġverilerek": 8135, "ĠdÃ¶": 8136, "ĠkararÄ±yla": 8137, "____": 8138, "Ġkargo": 8139, "ĠbarÄ±ndÄ±r": 8140, "aÅŁtÄ±r": 8141, "Ġameliyat": 8142, "iss": 8143, "amuk": 8144, "ĠbulunmadÄ±ÄŁÄ±nÄ±": 8145, "paÅŁa": 8146, "lit": 8147, "dÃ¼z": 8148, "Ä±bbi": 8149, "âĢĶ": 8150, "oss": 8151, "Ġmuvaza": 8152, "ĠBenim": 8153, "ĠHep": 8154, "melerini": 8155, "ĠgÃ¼r": 8156, "liyat": 8157, "gÃ¼r": 8158, ".s": 8159, "ĠSÄ": 8160, "Ġuzat": 8161, "ted": 8162, "Ġsanal": 8163, "Ġseyir": 8164, "ĠbabasÄ±": 8165, "Ġbiliyor": 8166, "ĠdeÄŁiÅŁen": 8167, "imat": 8168, "ĠÅŀu": 8169, "umartesi": 8170, "ĠhÃ¼kmÃ¼nÃ¼n": 8171, "Ġdalg": 8172, "Ġnin": 8173, "VI": 8174, "'la": 8175, "ĠsÃ¶zleÅŁmenin": 8176, "Ġdikkatli": 8177, "osit": 8178, "Ġrezerv": 8179, "ĠhÄ±r": 8180, "cÄ±lÄ±ÄŁÄ±": 8181, "ĠOtel": 8182, "MS": 8183, "lamb": 8184, "yafet": 8185, "medik": 8186, "ĠaÃ§Ä±lÄ±ÅŁ": 8187, "ĠbÄ±rakÄ±lmasÄ±": 8188, "ĠalÄ±nmÄ±ÅŁ": 8189, "Ġparametr": 8190, "ĠSÄ±": 8191, "ĠRek": 8192, "ĠsaÄŁlÄ±ÄŁÄ±": 8193, "Ġtedavisi": 8194, "ĠaÃ§ma": 8195, "ĠAsya": 8196, "ĠgeldiÄŁini": 8197, "Ġhepsi": 8198, "Ġtanesi": 8199, "ĠÅŁaÅŁÄ±r": 8200, "Ok": 8201, "Ġgelmesi": 8202, "qquad": 8203, "ĠoluÅŁturulan": 8204, "ĠÃĩevre": 8205, "ĠiÅŁlemin": 8206, "ĠbaÅŁkaca": 8207, "ĠÃ§izg": 8208, "Ġprojesi": 8209, "Ġreaksiyon": 8210, "ĠbÄ±": 8211, "ĠbaÄŁlÄ±dÄ±r": 8212, "ĠyapÄ±mÄ±": 8213, "*.": 8214, "ĠdolandÄ±rÄ±cÄ±lÄ±k": 8215, "ĠdesteÄŁ": 8216, "andarma": 8217, "iÄŁe": 8218, "Ġsystem": 8219, "ester": 8220, "Tur": 8221, "ĠplanÄ": 8222, "ĠplanÄ±": 8223, "173": 8224, "ĠdeÄŁerler": 8225, "ĠUlusal": 8226, "Ġtemyizi": 8227, "ĠilginÃ§": 8228, "ĠÃ§Ã¶k": 8229, "ĠYÄ±ldÄ±z": 8230, "Ġelinde": 8231, "orld": 8232, "ĠBAÅŀ": 8233, "araj": 8234, "left": 8235, "ĠPeygamber": 8236, "ĠulaÅŁmak": 8237, "ĠÃĩelik": 8238, "akkale": 8239, "ĠanlaÅŁÄ±lmÄ±ÅŁtÄ±r": 8240, "Ġyerden": 8241, "âĢĻne": 8242, "akkabÄ±": 8243, "Ġboyu": 8244, "âĢĻl": 8245, "Ġret": 8246, "wo": 8247, "ĠAmerikan": 8248, "EÅŀ": 8249, "uÄŁla": 8250, "Ġbulunup": 8251, "TS": 8252, "Ġthese": 8253, "ĠER": 8254, "eks": 8255, "als": 8256, "Ġmensup": 8257, "Ġhaberleri": 8258, "Ġacil": 8259, "ĠdÃ¼zenlenmiÅŁ": 8260, "ĠSayÄ±": 8261, "ĠhÃ¼kÃ¼": 8262, "imizden": 8263, "lav": 8264, "Ġgenelde": 8265, "Ġdosyada": 8266, "mr": 8267, "lÄ±lÄ±ÄŁ": 8268, "ĠHaberler": 8269, "ĠÃ§aÄŁrÄ±": 8270, "184": 8271, "raÃ§": 8272, "ĠaÃ§Ä±klamasÄ±": 8273, "Ġolmayacak": 8274, "ĠYal": 8275, "ĠaÃ§Ä±lmÄ±ÅŁ": 8276, "183": 8277, "ĠbÃ¶lÃ¼mÃ¼nÃ¼n": 8278, "ĠsorumluluÄŁ": 8279, "diÄŁim": 8280, "hod": 8281, "ho": 8282, "Ġnez": 8283, "ĠSarÄ±": 8284, "caÄŁÄ±na": 8285, "ĠmirasÃ§Ä±": 8286, "yacak": 8287, "âĢĻyi": 8288, "Ġlig": 8289, "rekans": 8290, "ĠHayat": 8291, "ĠHazÄ±r": 8292, "atÃ¼r": 8293, "ĠyaptÄ±ÄŁÄ±nÄ±": 8294, "154": 8295, "ĠnÃ¶": 8296, "/veya": 8297, "Ä±lÄ±ÅŁ": 8298, ".E": 8299, "Ä°LÄ°": 8300, "Ġgeril": 8301, "Ġkamera": 8302, "etici": 8303, "Ġsaht": 8304, "Ġnesn": 8305, "ĠgeÃ§tiÄŁimiz": 8306, "Ġmuay": 8307, "Ġharf": 8308, "Ġmevsim": 8309, "ĠoluÅŁturur": 8310, "lerken": 8311, "ĠÃĸrgÃ¼t": 8312, "220": 8313, "Ġsiyasal": 8314, "Ġbelgesi": 8315, "ovid": 8316, "lantÄ±": 8317, "ĠyÃ¼zÃ¼nden": 8318, "Ġseni": 8319, "Ġused": 8320, "ĠTrans": 8321, "ĠPan": 8322, "akarya": 8323, "ĠarkadaÅŁlarÄ±": 8324, "Ġkemik": 8325, "kÄ±nma": 8326, "ĠMel": 8327, "ĠgÃ¶sterilmiÅŁtir": 8328, "ĠbÃ¶lÃ¼n": 8329, "163": 8330, "Ġevlen": 8331, "ĠincelendiÄŁinde": 8332, "linik": 8333, "amu": 8334, "ĠmiktarÄ±nÄ±n": 8335, "ĠkurulmuÅŁ": 8336, "ĠÃ§alÄ±ÅŁmanÄ±n": 8337, "usuf": 8338, "ĠÄ°stinaf": 8339, "elikle": 8340, "ĠGÃ¼neÅŁ": 8341, "acÄ±k": 8342, "ĠoranÄ±nÄ±n": 8343, "Ġoksi": 8344, "Ġhakimin": 8345, "ĠulaÅŁtÄ±r": 8346, "Ġbut": 8347, "ĠBalÄ±k": 8348, "Ġmuhak": 8349, "ĠEÄŁit": 8350, "156": 8351, "Ġarayan": 8352, "ĠmÃ¼daf": 8353, "Ġmaksimum": 8354, "Ġkup": 8355, "ĠPay": 8356, "Ġemsal": 8357, "ĠbazÄ±larÄ±": 8358, "isiklet": 8359, "Ġtemizlik": 8360, "Ã»r": 8361, "Ġyapabilir": 8362, "ĠTwitter": 8363, "Ġtor": 8364, "ĠÃĸzeti": 8365, "Ġalanlar": 8366, "ĠFarklÄ±": 8367, "Ġhizmetler": 8368, "ĠkÄ±zÄ±": 8369, "amÄ±ÅŁ": 8370, "ĠdeÄŁerlendirilmesinde": 8371, "Ġkalmak": 8372, "liyeti": 8373, "AÃ§Ä±klanan": 8374, "ÅŁap": 8375, "Ġits": 8376, "'an": 8377, "Ġmeyve": 8378, "ĠÃ§alÄ±ÅŁÄ±r": 8379, "-N": 8380, "ĠKuÅŁ": 8381, "ĠEc": 8382, "Ġproduc": 8383, "ection": 8384, "ĠLond": 8385, "ĠtasarÄ±mÄ±": 8386, "ĠRum": 8387, "ĠyapÄ±lmaktadÄ±r": 8388, ".org": 8389, "yalÄ±": 8390, "ĠbaÅŁladÄ±ÄŁÄ±": 8391, "Ġmahalli": 8392, "Ã¼kle": 8393, "ced": 8394, "ĠÃĸrnek": 8395, "Ġpost": 8396, "anÄ±p": 8397, "GUL": 8398, "ĠyaÅŁadÄ±k": 8399, "ĠboÅŁanma": 8400, "Ġtetkiki": 8401, "ĠBÃ¶lÃ¼mÃ¼": 8402, "Ġihale": 8403, "ĠkalÄ±p": 8404, "tes": 8405, "ĠkaynaklarÄ±": 8406, "ĠLim": 8407, "ĠarÅŁiv": 8408, "ĠÃ§evrimiÃ§i": 8409, "Ġbask": 8410, "Ã±": 8411, "Ġeylemin": 8412, "ĠanlaÅŁma": 8413, "enizi": 8414, "ump": 8415, "ors": 8416, "ĠArtÄ±k": 8417, "286": 8418, "ĠcezalandÄ±rÄ±lmasÄ±na": 8419, "YON": 8420, "ĠaÅŁamada": 8421, "ĠyÄ±la": 8422, "bine": 8423, "Ġmimar": 8424, "Ġhususunda": 8425, "ĠkÃ¶tÃ¼ye": 8426, "ĠBayan": 8427, "ĠyapmasÄ±": 8428, "Ġyedi": 8429, "Ġteknolojik": 8430, "ĠiÅŁleminin": 8431, "Ġmesai": 8432, "ĠyÄ±llarÄ±": 8433, "Ġgereklidir": 8434, "alatya": 8435, "Ġbulabilirsiniz": 8436, "ĠÅŁehr": 8437, "ĠyaÅŁat": 8438, "Ġlan": 8439, "Ä±lacaÄŁÄ±": 8440, "Ġmore": 8441, "304": 8442, "ĠTal": 8443, "Ġdosyaya": 8444, "ĠGrubu": 8445, "ĠdayandÄ±r": 8446, "Ġran": 8447, "Ä±lmaya": 8448, "Ġarazi": 8449, "ĠsÄ±fat": 8450, "Ġdenir": 8451, "stra": 8452, "Ġstudy": 8453, "Ġuyularak": 8454, "mosyon": 8455, "ĠsuÃ§larÄ±ndan": 8456, "TM": 8457, "ĠsÃ¼rece": 8458, "ĠÄ°ÅŁleri": 8459, "ĠSem": 8460, "ĠiliÅŁkileri": 8461, "ĠbakÄ±ldÄ±ÄŁÄ±nda": 8462, "ĠBeraat": 8463, "ĠolmasÄ±nÄ±n": 8464, "Ã¶p": 8465, "Ġpsikolojik": 8466, "ĠalacaÄŁÄ±n": 8467, "Ġseks": 8468, "ĠSigorta": 8469, "Ġaynen": 8470, "ĠyargÄ±lan": 8471, "krayna": 8472, "Ġesk": 8473, "lev": 8474, "Ġkalitesi": 8475, "ĠkonuÅŁan": 8476, "Ġumut": 8477, "ĠDoÄŁru": 8478, "ĠRapor": 8479, "ĠmÃ¼h": 8480, "ĠYasaya": 8481, "Ġsistemin": 8482, "ĠMek": 8483, "bas": 8484, "ĠÂ·": 8485, "Ġarsa": 8486, "ĠDe": 8487, "ĠRamazan": 8488, "ategor": 8489, "xy": 8490, "ternational": 8491, "ĠiletiÅŁime": 8492, "ĠDoÃ§": 8493, "Ġbeen": 8494, "Ġbula": 8495, "mÃ®": 8496, "ĠYÃ¶ntem": 8497, "Ġbulan": 8498, "yeni": 8499, "ĠgetirdiÄŁi": 8500, "ins": 8501, "}{\\": 8502, "Ġsermay": 8503, "ĠkorunmasÄ±": 8504, "lÄ±ÄŁÄ±ndan": 8505, "ÅŁe": 8506, "ĠÃ¶denmesi": 8507, "Ä±nday": 8508, "over": 8509, "ĠÃ¼stÃ¼": 8510, "ater": 8511, "ĠgeÃ§ersiz": 8512, "Ġbelirlemek": 8513, "ĠdaÄŁÄ±lÄ±m": 8514, "ĠulaÅŁabilirsiniz": 8515, "ilist": 8516, "ĠÄ±r": 8517, "Ġdayanarak": 8518, "ĠgÃ¶rdÃ¼k": 8519, "esef": 8520, "iter": 8521, "ĠMersin": 8522, "Ġburaya": 8523, "ysis": 8524, "ediÄŁiniz": 8525, "ahut": 8526, "ĠOda": 8527, "imden": 8528, "ĠYeÅŁil": 8529, "Ġburadan": 8530, "ayÄ±m": 8531, "ĠaraÃ§larÄ±": 8532, "top": 8533, "ĠFETÃĸ": 8534, "ĠkarÅŁÄ±lÄ±ÄŁÄ±nda": 8535, "ĠalÄ±ÅŁkan": 8536, "Ã¼nÃ¼yor": 8537, "ALI": 8538, "ĠGerekÃ§e": 8539, "ĠgÃ¼nden": 8540, "EÄŁitim": 8541, "ower": 8542, "ann": 8543, "Ġnesil": 8544, "anlÄ±ur": 8545, "eÅŁme": 8546, "Ġhukuken": 8547, "ĠØª": 8548, "imini": 8549, "ife": 8550, "eceÄŁimiz": 8551, "lack": 8552, "Ġwill": 8553, "ĠKÃ¼t": 8554, "lerimize": 8555, "Ġkurs": 8556, "ĠGÃ¶rÃ¼ÅŁ": 8557, "ĠÃ¼stÃ¼nde": 8558, "eker": 8559, "ÅŁamba": 8560, ".)Ċ": 8561, "'D": 8562, "ĠitirazÄ": 8563, "ĠitirazÄ±": 8564, "tikleri": 8565, "layÄ±p": 8566, "ÅŁey": 8567, "Ġdayanak": 8568, "malÄ±sÄ±nÄ±z": 8569, "161": 8570, "Ġkitl": 8571, "YÄ±l": 8572, "ĠSes": 8573, "utma": 8574, "Ġsekiz": 8575, "ĠteÅŁebbÃ¼s": 8576, "ĠÄ°dari": 8577, "Ġout": 8578, "ative": 8579, "ĠkitabÄ±": 8580, "ĠBeyaz": 8581, "ĠYÃ¼r": 8582, "ĠzorunluluÄŁu": 8583, "295": 8584, "Ġprens": 8585, "ual": 8586, "Ġkimsenin": 8587, "ulur": 8588, "Ġprofil": 8589, "oma": 8590, "765": 8591, "Ä±mÄ±na": 8592, "ĠMÃ¼hendis": 8593, "OÄŀLU": 8594, "ĠsaklÄ±": 8595, "kent": 8596, "Ġmevzuat": 8597, "Ġendek": 8598, "ĠhariÃ§": 8599, "ĠedildiÄŁ": 8600, "169": 8601, "Ã¼lasyon": 8602, "Ġemir": 8603, "ĠToplam": 8604, "Ġvi": 8605, "Ġmaddeler": 8606, "oda": 8607, "Ġadeta": 8608, "Ġekibi": 8609, "ĠbÃ¼yÃ¼": 8610, "Ana": 8611, "larÄ±nÄ±zÄ±n": 8612, "ature": 8613, "ĠYTL": 8614, "vekil": 8615, "ĠsonuÃ§landÄ±r": 8616, "Ġedilemez": 8617, ">X": 8618, "ĠdevamÄ": 8619, "ĠdevamÄ±": 8620, "ARI": 8621, "otos": 8622, "ektÃ¶rÃ¼": 8623, "soy": 8624, "ĠÃ§elik": 8625, "Ġmenf": 8626, "Ġkli": 8627, "dÄ±rma": 8628, "Ġistemiyle": 8629, "obot": 8630, "ĠAnd": 8631, "Ġhoc": 8632, "Ġmel": 8633, "302": 8634, "182": 8635, "Ġkara": 8636, "ansal": 8637, "ĠseÃ§imi": 8638, "ĠBi": 8639, "ĠHÄ±z": 8640, "Ġoynan": 8641, "Ġyiyecek": 8642, "CO": 8643, "ĠoluÅŁturmak": 8644, "sar": 8645, "ji": 8646, "?\"": 8647, "ĠMik": 8648, "ĠÃ§Ä±kmaktadÄ±r": 8649, "Ġlay": 8650, "bek": 8651, "Ġsenet": 8652, "ĠsÃ¼redir": 8653, "iÄŁinin": 8654, "ĠbugÃ¼ne": 8655, "cesi": 8656, "ĠAj": 8657, "ikal": 8658, "Ġkooperatif": 8659, "ĠMen": 8660, "Bet": 8661, "ĠÃĩÃ¶z": 8662, "Ġtime": 8663, "Ġsik": 8664, "ĠDERECE": 8665, "Ġetkileyen": 8666, "eld": 8667, "TÃľ": 8668, "ĠOrtak": 8669, "Ġesnek": 8670, "ĠdÃ¼zeyinde": 8671, "ĠÃ¶rgÃ¼tÃ¼": 8672, "zerbay": 8673, "Ã¼bÃ¼": 8674, "rol": 8675, "Ġondan": 8676, "ĠBÃ¶lgesi": 8677, "350": 8678, "ĠSÃ¼per": 8679, "Ġmaddelerinde": 8680, "ĠsavunmuÅŁtur": 8681, "ĠðŁ": 8682, "Ġtopr": 8683, "159": 8684, "Ġraporuna": 8685, "Ġgeriye": 8686, "ĠgirdiÄŁi": 8687, "ms": 8688, "king": 8689, "Ñĸ": 8690, "ansiyon": 8691, "ĠbozulmasÄ±nÄ±": 8692, "Ġkazanan": 8693, "ĠÃ¼rÃ¼nÃ¼n": 8694, "odu": 8695, "ĠtamamÄ": 8696, "ĠtamamÄ±": 8697, "ĠkumaÅŁ": 8698, "ĠalacaÄŁÄ±nÄ±n": 8699, "Ġmahkemesince": 8700, "ĠdeÄŁiÅŁiklikler": 8701, "unlar": 8702, "/B": 8703, "251": 8704, "ĠgeliÅŁtirme": 8705, "ĠTR": 8706, "ĠdÃ¶rdÃ¼ncÃ¼": 8707, "Ġtabak": 8708, "ĠCami": 8709, "ĠFran": 8710, "ĠÃ§atÄ±ÅŁma": 8711, "ĠsuÃ§unu": 8712, "ĠKaradeniz": 8713, "ĠhaftalÄ±k": 8714, "ĠhÃ¼kmedilmesi": 8715, "ĠEskiÅŁehir": 8716, "428": 8717, "Ġgelip": 8718, "ĠTok": 8719, "ĠilÃ§esi": 8720, "Ġrehber": 8721, "438": 8722, "elerek": 8723, "At": 8724, "Ġsergilen": 8725, "Ġharekete": 8726, "Ġkoordin": 8727, "aÄŁÄ±na": 8728, "Ġolabilirsiniz": 8729, "ĠkarmaÅŁÄ±k": 8730, "ĠAY": 8731, "ĠGeliÅŁ": 8732, "Ã¢s": 8733, "ĠBunlarÄ±n": 8734, "ĠdosyalarÄ±n": 8735, ".*,": 8736, "ĠdÃ¼zeyi": 8737, "uyoruz": 8738, "Ġbelirlem": 8739, "ĠanlamÄ": 8740, "ĠanlamÄ±": 8741, "ĠHÃ¢kimi": 8742, "ĠSiyas": 8743, "ĠiliÅŁkinin": 8744, "fed": 8745, "ĠmÃ¼ÅŁterek": 8746, "Ġkimi": 8747, "Ãĩev": 8748, "ĠTip": 8749, "que": 8750, "ĠkatkÄ±da": 8751, "Ã¼lÃ¼k": 8752, "anÄ±z": 8753, "tra": 8754, "ayol": 8755, "Ġkamp": 8756, "ema": 8757, "Ġbez": 8758, "ĠpiÅŁir": 8759, "ĠÃ§aÄŁÄ±r": 8760, "stri": 8761, "Ġetkiler": 8762, "Ġgetirilen": 8763, "iyetini": 8764, "ĠkalÄ±cÄ±": 8765, "ĠÃ¼lkelerin": 8766, "ĠWindows": 8767, "DÃľ": 8768, "Ġsizler": 8769, "ĠhemÅŁ": 8770, "Ġinsanlara": 8771, "deri": 8772, "ĠsÄ±rasÄ±yla": 8773, "âĢĻs": 8774, "ĠÄ°ÃĩÄ°N": 8775, "Ah": 8776, "Ġhaciz": 8777, "ĠSavaÅŁÄ": 8778, "ĠSavaÅŁÄ±": 8779, "ĠBab": 8780, "Ä°zmir": 8781, "ĠsÃ¶ylemek": 8782, "Ġincelenmesine": 8783, "ĠBaÅŁka": 8784, "ĠÅŀey": 8785, "ĠkatÄ±lÄ±mcÄ±": 8786, "ĠEN": 8787, "Ġgiderinin": 8788, "maktayÄ±z": 8789, ".b": 8790, "lenir": 8791, "daroÄŁlu": 8792, "ĠÃ§Ä±kacak": 8793, "Ġwww": 8794, "ĠÃ¶rgÃ¼tÃ¼n": 8795, "eyim": 8796, "ĠkaynaklÄ±": 8797, "aklÄ±": 8798, "Ġvefat": 8799, "ĠiÅŁleyecek": 8800, "ĠPark": 8801, "ĠDairesince": 8802, "Ġeklem": 8803, "amayan": 8804, "ĠÃ¶nde": 8805, "eceksiniz": 8806, "ĠyÃ¶nlÃ¼": 8807, "ĠayrÄ±ntÄ±": 8808, "253": 8809, "ĠyargÄ±lamanÄ±n": 8810, "Ġvekilleri": 8811, "Ġdaire": 8812, "Ġdalga": 8813, "Ġedilmelidir": 8814, "ĠolmasÄ±dÄ±r": 8815, "Ã¢let": 8816, "Avrupa": 8817, "Ġ($": 8818, "Ġnem": 8819, "OD": 8820, "Ġente": 8821, "Ġmanz": 8822, "ĠKaymak": 8823, "Ġfaaliyetleri": 8824, "ĠinsanÄ±": 8825, "Ġemekli": 8826, "errÃ¼r": 8827, "tÃ¼rÃ¼": 8828, "ĠseÃ§eneÄŁi": 8829, "Ġdist": 8830, "172": 8831, "ĠrÃ¼z": 8832, "ĠÄ°daresi": 8833, "Ã¼nce": 8834, "ĠOÄŁ": 8835, "Ġbulunul": 8836, "Ġibaret": 8837, "Å«": 8838, "Ġbilen": 8839, "BÃ¼yÃ¼k": 8840, "Ġvol": 8841, "ĠNum": 8842, "Bunun": 8843, "171": 8844, "ĠÃľretim": 8845, "rimenkul": 8846, "Ġorganik": 8847, "Ġvir": 8848, "Ġdeneyimi": 8849, "ĠgÃ¼nÃ¼n": 8850, "ÅŁembe": 8851, "Ġorij": 8852, "ĠBanka": 8853, "ferans": 8854, "Ä±tma": 8855, "Ġihtimal": 8856, "ĠÃ¶zgÃ¼rlÃ¼k": 8857, "ĠVakfÄ±": 8858, "Ġincelenip": 8859, "Ġistasyon": 8860, "ool": 8861, "ĠÅŀahin": 8862, "ĠÎ¼": 8863, "Ġvarsay": 8864, "Kal": 8865, "ĠgÃ¶ÄŁ": 8866, "162": 8867, "...\"": 8868, "ĠTelefon": 8869, "ĠkullanÄ±ldÄ±ÄŁÄ±": 8870, "mp": 8871, "ĠKullanÄ±cÄ±": 8872, "Ġnefes": 8873, "Ã®n": 8874, "Ġdekor": 8875, "Ġdurumuna": 8876, "Ġcinsiyet": 8877, "Ġph": 8878, "Ġkomut": 8879, "ĠilÃ¢m": 8880, "Ġmit": 8881, "Ġtrend": 8882, "tasÄ±": 8883, "ĠyanÄ±na": 8884, "ĠSebep": 8885, "ĠÃ§alÄ±ÅŁmalarÄ±nÄ±": 8886, "611": 8887, "ĠyÃ¼kÃ¼mlÃ¼lÃ¼k": 8888, "Ġkullanabilirsiniz": 8889, "ĠÃ§ocuklarÄ±": 8890, "ĠkarÅŁÄ±mÄ±za": 8891, "ĠbirleÅŁen": 8892, "rib": 8893, "ĠbasÄ±nÃ§": 8894, "Ġmeydan": 8895, "Ġyumurta": 8896, "memiz": 8897, "luÄŁun": 8898, "ĠHik": 8899, "ĠMÃ¼cad": 8900, "ĠkÃ¢": 8901, "ĠMez": 8902, "layacak": 8903, "ĠsÃ¶zleÅŁmeler": 8904, "ÃľKM": 8905, "164": 8906, "CE": 8907, "memektedir": 8908, "Ġtalimat": 8909, "Ġmini": 8910, "Ġvermesi": 8911, "ĠgeliÅŁen": 8912, "ĠkÄ±yafet": 8913, "Ġyetkiye": 8914, "Par": 8915, "ĠKes": 8916, "203": 8917, "ĠKut": 8918, "-KARAR": 8919, "duÄŁumuz": 8920, "Ġfazl": 8921, "ĠsilahlÄ±": 8922, "ĠKocaeli": 8923, "Prof": 8924, "Ġpah": 8925, "Osman": 8926, "Ġinv": 8927, "ĠÃ§Ä±kmasÄ±": 8928, "ĠgÃ¶revlendir": 8929, "Ġtalebinde": 8930, "-h": 8931, "Ġnihai": 8932, "ĠKen": 8933, "cy": 8934, "ĠbulunmuÅŁ": 8935, "Ġsam": 8936, "ĠeÄŁlenceli": 8937, "maksÄ±zÄ±n": 8938, "ĠdÃ¼zenlemeler": 8939, "ĠyaÅŁadÄ±ÄŁ": 8940, "Ġsent": 8941, "FA": 8942, ",\"": 8943, "ĠPas": 8944, "larÄ±nÄ±za": 8945, "Ġolabilecek": 8946, "Ġsebeplerle": 8947, "Ġkonfor": 8948, "Ġistenilen": 8949, "Ã¼zdan": 8950, "ĠhÃ¼cre": 8951, "serv": 8952, "ĠkararlarÄ±nÄ±n": 8953, "ĠÄ": 8954, "_{\\": 8955, "ĠHÃľKM": 8956, "Ġhatt": 8957, "Ġyoksul": 8958, "Ġfar": 8959, "ĠdemiÅŁ": 8960, "au": 8961, "zerbaycan": 8962, "Ġmala": 8963, "ĠaltÄ±ndaki": 8964, "ĠÃ§ekir": 8965, "Ġtelefonu": 8966, "Ġgetirilmesi": 8967, "Ġmarket": 8968, "ĠkapsamlÄ±": 8969, "Ġmasa": 8970, "eceÄŁinden": 8971, "BMM": 8972, "Ġbelirtildi": 8973, "177": 8974, "ĠCih": 8975, "ĠbaÄŁÄ±ÅŁ": 8976, "*Ċ": 8977, "Ġmolek": 8978, "adde": 8979, "ĠgÃ¶rÃ¼le": 8980, "Ã¼man": 8981, "memiÅŁtir": 8982, "Ġyolda": 8983, "ĠyapÄ±lmamÄ±ÅŁtÄ±r": 8984, "zan": 8985, "Ġpe": 8986, "onomik": 8987, "178": 8988, "ÅŀI": 8989, "ĠmantÄ±k": 8990, "ilistin": 8991, "cÄ±lÄ±ÄŁ": 8992, "Ġgitti": 8993, "ks": 8994, "ĠHÃľKMÃľN": 8995, "Ġzeytin": 8996, "anlÄ±urfa": 8997, "ayarak": 8998, "ĠkullanÄ±cÄ±lar": 8999, "prÃ¼": 9000, "Ġyerler": 9001, "Ġenfeksiyon": 9002, "ÃĩE": 9003, "Ġistedi": 9004, "reas": 9005, "Ġyerlerden": 9006, "Ul": 9007, "Ġincelenmeksizin": 9008, "ERÄ°": 9009, "diÄŁinin": 9010, "Ġstres": 9011, "maktadÄ±rlar": 9012, "ĠmaÃ§Ä±": 9013, "tarÄ±n": 9014, "ĠyatÄ±rma": 9015, "Ġduygusal": 9016, "ĠaÅŁamalarda": 9017, "167": 9018, "ĠProgramÄ": 9019, "ĠProgramÄ±": 9020, "ĠaÃ§Ä±lmasÄ±": 9021, "cen": 9022, "anet": 9023, "olojisi": 9024, "ĠÃ¼lkelerde": 9025, "ĠkalmÄ±ÅŁ": 9026, "ĠgÃ¶zden": 9027, "ĠSok": 9028, "AA": 9029, "ĠbaÅŁlamÄ±ÅŁtÄ±r": 9030, "ayasa": 9031, "176": 9032, "Ġtedarik": 9033, "YaÅŁ": 9034, "alimanÄ±": 9035, "ĠCumhurbaÅŁkan": 9036, "Ġdoy": 9037, "ĠÄ°nÅŁaat": 9038, "ĠGe": 9039, "Gel": 9040, "ĠDoÄŁan": 9041, "Ġkonuk": 9042, "tandar": 9043, "ÃĸR": 9044, "ĠhattÄ±": 9045, "ĠdÃ¼k": 9046, "ĠyaÅŁamak": 9047, "Ã¢d": 9048, "ĠÃ§Ã¶zÃ¼n": 9049, "ĠÃ§alÄ±ÅŁmak": 9050, "Ġkeyifli": 9051, "ĠhalkÄ±": 9052, "ĠmÃ¼te": 9053, "ĠyÃ¼rÃ¼yÃ¼ÅŁ": 9054, "-R": 9055, "ĠfÄ±rsatÄ±": 9056, "Ġemr": 9057, "Ġmenfaat": 9058, "ĠPort": 9059, "ĠaÃ§Ä±ldÄ±ÄŁÄ±": 9060, "ĠVI": 9061, "ĠyapÄ±n": 9062, "Ġ..": 9063, "Ġtahsis": 9064, "Ġhesaplanan": 9065, "Ġdarbe": 9066, "181": 9067, "ĠinanÄ±yor": 9068, "ĠEng": 9069, "dent": 9070, "dots": 9071, "ĠAdalet": 9072, "Ġfel": 9073, "ĠArab": 9074, "Ġmatr": 9075, "indistan": 9076, "ĠtÃ¼ketici": 9077, "Ùī": 9078, "ĠSP": 9079, "Ġmahkemeye": 9080, "Ġikamet": 9081, "Ġdirenme": 9082, "ĠbaÅŁvurusunda": 9083, "Ã¶ylelikle": 9084, "Ġverilmektedir": 9085, "ĠyÄ±lÄ±na": 9086, "ĠhayatÄ±n": 9087, "ĠortamÄ±nda": 9088, "Ġistatistiksel": 9089, "Ġprov": 9090, "CHP": 9091, "mekten": 9092, "Ä°B": 9093, "lanacak": 9094, "291": 9095, "Ġiklim": 9096, "ĠtÄ±klayÄ±n": 9097, "Ġlink": 9098, "ited": 9099, "Ġherkese": 9100, "Yaz": 9101, "ĠPerson": 9102, "tÄ±lar": 9103, "App": 9104, "asa": 9105, "Ġsanay": 9106, "700": 9107, "leyip": 9108, "ĠbaÅŁlÄ±k": 9109, "Ġkapan": 9110, "ĠÌģ": 9111, "ĠalanÄ±na": 9112, "ĠBÃĸL": 9113, "Ġbahisle": 9114, "Ġpaz": 9115, "Ġunder": 9116, "Ġila": 9117, "ĠgÃ¼ne": 9118, "Ġanlatan": 9119, "ĠEge": 9120, "Ġcami": 9121, "Ġprocess": 9122, "ava": 9123, "ĠusulÃ¼": 9124, "ĠGelen": 9125, "ĠmÃ¼st": 9126, "ÅŁek": 9127, "oksi": 9128, "ĠDi": 9129, "ĠkalÄ±r": 9130, "elli": 9131, "ĠtartÄ±ÅŁÄ±lan": 9132, "SIN": 9133, "avan": 9134, "Ġbilgilere": 9135, "ĠgÃ¶revl": 9136, "ĠsÃ¼rÃ¼c": 9137, "ĠOrdu": 9138, "Ġplana": 9139, "ĠartÄ±ÅŁÄ±": 9140, "ĠarasÄ±na": 9141, "Ġedebiyat": 9142, "Ġresp": 9143, "ĠAbdullah": 9144, "Ġcar": 9145, "ĠKarab": 9146, "Ġpor": 9147, "Teb": 9148, "ĠEK": 9149, "esign": 9150, "ĠApple": 9151, "ĠmÃ¼ddeti": 9152, "aliz": 9153, "ĠyapmanÄ±z": 9154, "Ġhil": 9155, "ĠyÃ¼zÃ¶lÃ§Ã¼m": 9156, "ART": 9157, "Tak": 9158, "Ġmaddede": 9159, "ĠgÃ¶sterdi": 9160, "ilmeksizin": 9161, "app": 9162, "Ġmate": 9163, "Ġistikrar": 9164, "Ġoyunlar": 9165, "ï¿": 9166, "ings": 9167, "ĠuygulanÄ±r": 9168, "ĠkÃ¶pek": 9169, "ï¿½": 9170, "ĠDis": 9171, "Ø¬": 9172, "ĠÅŀube": 9173, ")$$Ċ": 9174, ">Ãĩ": 9175, "ĠsÃ¶zlÃ¼": 9176, "Ġgayret": 9177, "Ġgram": 9178, "ĠyÃ¶nelt": 9179, "Ġkatk": 9180, "alya": 9181, "292": 9182, "ĠSoy": 9183, "Ġkusurlu": 9184, "Ser": 9185, "TE": 9186, "Ġkahraman": 9187, "ĠKoÃ§": 9188, "dÄ±lar": 9189, "ĠyaÄŁÄ±ÅŁ": 9190, "ĠsoruÅŁtur": 9191, "ĠsÃ¼b": 9192, "slan": 9193, "ĠÃ¶denen": 9194, "ĠdÃ¼r": 9195, "Ġservisi": 9196, "ĠÃĩift": 9197, "ĠÃ¶ÄŁrencilere": 9198, "uÅŁu": 9199, "Ġserbestlik": 9200, "Ġ;": 9201, "ĠarasÄ±ndan": 9202, "laÅŁÄ±m": 9203, "ĠLisesi": 9204, "ĠDEÄŀ": 9205, "309": 9206, "Ġmesle": 9207, "ĠalÄ±mÄ±": 9208, "Ġcins": 9209, "Ġdinamik": 9210, "ĠErzurum": 9211, "ĠkavramÄ": 9212, "ĠkavramÄ±": 9213, "ĠBaÅŁkanlÄ±ÄŁÄ±na": 9214, "Ġelb": 9215, "Ġyetkisi": 9216, "Ġegemen": 9217, "Ġtaahh": 9218, "ĠalÄ±nÄ±p": 9219, "nu": 9220, "ĠÃ¶rneÄŁi": 9221, "ĠolmayÄ±": 9222, "amil": 9223, "AV": 9224, "ĠolayÄ±": 9225, "551": 9226, "ĠyapÄ±lÄ±p": 9227, "/h": 9228, "ĠdÃ¶nemlerde": 9229, "ĠgÃ¶rÃ¼nÃ¼yor": 9230, "luÄŁunda": 9231, "Ġbilgilerin": 9232, "Ã¼rken": 9233, "caya": 9234, "Ġiddianam": 9235, "Ġfe": 9236, "Ġsertif": 9237, "ABER": 9238, "okulu": 9239, "ĠYunanistan": 9240, "ĠÃ§Ä±kma": 9241, "Ġfutbolcu": 9242, "ĠKomisyonu": 9243, "ilenin": 9244, "uyorum": 9245, "/k": 9246, "Ġkere": 9247, "Ġkonular": 9248, "eceÄŁinin": 9249, "aÅŁÄ": 9250, "Ġolmaktan": 9251, "Ġtabii": 9252, "Ġuygulamalar": 9253, "Ä°st": 9254, "240": 9255, "ĠkÄ±lÄ±n": 9256, "Ġup": 9257, "ĠhÃ¼kÃ¼mda": 9258, "ĠDak": 9259, "ĠiPhone": 9260, "ĠErmeni": 9261, "ecik": 9262, "Ġemniyet": 9263, "rade": 9264, "ĠiÃ§erisine": 9265, "diÄŁinden": 9266, "ĠkazasÄ±": 9267, "ĠoluÅŁturmaktadÄ±r": 9268, "ĠFaz": 9269, "SP": 9270, "oter": 9271, "formation": 9272, "Sosyal": 9273, "aÅŁÄ±": 9274, "ĠyapÄ±labilir": 9275, "900": 9276, "Ġtesisi": 9277, "diy": 9278, "ĠMHP": 9279, "ĠKarak": 9280, "ĠÄ°mam": 9281, "ĠaÃ§tÄ±ÄŁÄ±": 9282, "ĠkanÄ±tlara": 9283, "ĠanlayÄ±ÅŁÄ±": 9284, "ĠEtkin": 9285, "ĠbaÄŁÄ±r": 9286, "veÃ§": 9287, "Ġokur": 9288, "Ġbeslenme": 9289, "partial": 9290, "ugh": 9291, "ĠGal": 9292, "Ġfesih": 9293, "Ġverilmesinde": 9294, "ĠKON": 9295, "ected": 9296, "213": 9297, "ĠÃ§ey": 9298, "ĠGÄ±da": 9299, "ĠhakkÄ±na": 9300, "onspor": 9301, "ĠFik": 9302, "Ġmakine": 9303, "Ġedenden": 9304, "ĠOR": 9305, "Ġplanlama": 9306, "ĠsÄ±z": 9307, "Ġsonradan": 9308, "ĠiÅŁlediÄŁi": 9309, "Ġdamar": 9310, "ĠÄ°span": 9311, "Ġsavunarak": 9312, "Ġkariyer": 9313, "larken": 9314, "ĠyollarÄ±": 9315, "ĠyÄ±ldan": 9316, "hip": 9317, "odrum": 9318, "ĠolmaksÄ±zÄ±n": 9319, "ĠiliÅŁkili": 9320, "LAMA": 9321, "ĠÃ§ekti": 9322, "Ġust": 9323, "ĠyanÄ±n": 9324, "305": 9325, "Ġertelen": 9326, "Ġfazlas": 9327, "avÃ¼z": 9328, "ĠOlay": 9329, "ĠÃ¶lÃ¼": 9330, "ĠÃ¶tÃ¼rÃ¼": 9331, "Ġmuaf": 9332, "Ġcons": 9333, "Ġnew": 9334, "ĠoluÅŁmaktadÄ±r": 9335, ":...": 9336, "ĠMedeni": 9337, "leks": 9338, "Ã¼phan": 9339, "ĠÄ°slÃ¢m": 9340, "Ġelbette": 9341, "abalÄ±k": 9342, "Ġthan": 9343, "ĠalgÄ±": 9344, "ilmeli": 9345, "Ġkritik": 9346, "tical": 9347, "ĠBeÅŁ": 9348, "KAN": 9349, "ĠGenÃ§lik": 9350, "abilme": 9351, "DU": 9352, "Ġalana": 9353, "ĠTec": 9354, "uncu": 9355, "amÄ±yor": 9356, "ĠÃ¶nlenmesi": 9357, "ĠyakÄ±t": 9358, "amadÄ±ÄŁÄ±": 9359, "itler": 9360, "ĠtaÅŁÄ±nmaza": 9361, "298": 9362, "Ġstok": 9363, "ĠDanÄ±ÅŁtay": 9364, "ruc": 9365, "ÅŁi": 9366, "ĠyarÄ±m": 9367, "ĠÃľyesi": 9368, "280": 9369, "UÅŀ": 9370, "ĠÃ§Ä±ktÄ±ÄŁÄ±": 9371, "Ġkelime": 9372, "ĠzararÄ±n": 9373, "Ġderi": 9374, "Ġolaylar": 9375, "ĠdavalÄ±larÄ±n": 9376, "ĠEnerji": 9377, "Ġge": 9378, "LARIN": 9379, "ĠartmasÄ±": 9380, "Ä±lmalÄ±dÄ±r": 9381, "Ġisterseniz": 9382, "Ġhidro": 9383, "iÅŁle": 9384, "omen": 9385, "ĠmuhteÅŁem": 9386, "ĠsatÄ±ÅŁa": 9387, "ĠEdeb": 9388, "ĠÃ§ekin": 9389, "gÄ±nÄ±n": 9390, "ĠEÄŁitimi": 9391, "Has": 9392, "Ġyurtd": 9393, "luÄŁunun": 9394, "ĠGÃ¼Ã§": 9395, "ĠkontrolÃ¼": 9396, "lendi": 9397, "ĠaÃ§Ä±klamalarÄ±": 9398, "Ġedebil": 9399, "Ġdeneme": 9400, "ses": 9401, "ĠgÃ¶rdÃ¼ÄŁÃ¼": 9402, "Ġpol": 9403, "ĠHaklarÄ±": 9404, "ĠyÄ±lÄ±nÄ±n": 9405, "ĠYusuf": 9406, "ĠTest": 9407, "Ġtaksit": 9408, "stil": 9409, "Ä±lmasÄ±nÄ±n": 9410, "olik": 9411, "elerdir": 9412, "unÃ§": 9413, "DÄ°Ä°NE": 9414, "Ġhayatta": 9415, "230": 9416, "Ġhurda": 9417, "Ġintik": 9418, "SonuÃ§": 9419, "ĠFu": 9420, "ĠuzaklaÅŁ": 9421, "ÃĤ": 9422, "Ä°NÄ°N": 9423, "fiye": 9424, "ĠFutbol": 9425, "EÄŀÄ°": 9426, "}_": 9427, "].": 9428, "Ġpromosyon": 9429, "elal": 9430, "ĠiÅŁÃ§ilerin": 9431, "Ġyeterince": 9432, "ĠpH": 9433, "Ġgaranti": 9434, "ĠsaÄŁladÄ±ÄŁÄ±": 9435, "ĠDar": 9436, "613": 9437, "ĠparanÄ±n": 9438, "Ġmesleki": 9439, "Bah": 9440, "ĠbaÅŁvurusu": 9441, "LAM": 9442, "Ġkorku": 9443, "ĠÃ§ekim": 9444, "Ġye": 9445, "Del": 9446, "Ġgetirt": 9447, "ĠÃ§alÄ±ÅŁanlarÄ±n": 9448, "ĠdonanÄ±m": 9449, "Ġborsa": 9450, "ĠArt": 9451, "Ġtac": 9452, "Ġriski": 9453, "Ġiktis": 9454, "ĠDavanÄ±n": 9455, "alesef": 9456, "ibe": 9457, "Ġbildirim": 9458, "ĠAÅŁaÄŁÄ±": 9459, "ĠolanaÄŁÄ±": 9460, "ĠHerk": 9461, "ĠgÃ¶zetilmemesi": 9462, "masÄ±n": 9463, "Ġokunarak": 9464, "Ġtayini": 9465, "sk": 9466, "Ġiyice": 9467, "Ġtraf": 9468, "ĠAslÄ±nda": 9469, "SÄ°": 9470, "Ġindi": 9471, "Ġdemokratik": 9472, "Ġsa": 9473, "CÄ°": 9474, "ĠThis": 9475, "ĠTemiz": 9476, "Ġfol": 9477, "Sev": 9478, "Ġlabor": 9479, "Ġayda": 9480, "ĠÄ°Ã§er": 9481, "Ġabon": 9482, "anÃ§": 9483, "ĠNitekim": 9484, "Ġbireylerin": 9485, "yaspor": 9486, "Ġhusum": 9487, "ĠKHK": 9488, "Ä°ngil": 9489, "ÙİÙĳ": 9490, ">â": 9491, "Ġboyutu": 9492, "Ġertel": 9493, "Ġakr": 9494, "ĠgÃ¼nler": 9495, "dÄ±kÃ§a": 9496, "ĠMÄ°L": 9497, "Ġgitmek": 9498, "Ġneg": 9499, "299": 9500, "gah": 9501, "ĠdaÄŁÄ±tÄ±m": 9502, "act": 9503, "Ġimzal": 9504, "asayfa": 9505, "ĠuyuÅŁmazlÄ±ÄŁÄ±n": 9506, "Ġturist": 9507, "Ġbunlara": 9508, "melisiniz": 9509, "Ġorganiz": 9510, "Ġpencer": 9511, "ĠSatÄ±ÅŁ": 9512, "umda": 9513, "Ġkadros": 9514, "ĠDevleti": 9515, "Ġaksi": 9516, "ĠØ£": 9517, "ĠyaÄŁmur": 9518, "Ġdiler": 9519, "lig": 9520, "Ġdiyet": 9521, "ĠyardÄ±mÄ±yla": 9522, "-e": 9523, "Ġkeyf": 9524, "001": 9525, "DeÄŁ": 9526, "Ġsevgil": 9527, "ediÄŁimiz": 9528, "ĠarkadaÅŁlar": 9529, "Ġfeshed": 9530, "ulma": 9531, "Ã¼cu": 9532, "Ġker": 9533, "Siz": 9534, ".ht": 9535, "Ġrec": 9536, "bout": 9537, "ĠTeknoloji": 9538, "ĠkoÅŁullarÄ±nÄ±n": 9539, "á¸¥": 9540, "210": 9541, "ĠvÃ¼cud": 9542, "eten": 9543, "ĠkÃ¼l": 9544, "balaj": 9545, "ĠgÃ¶k": 9546, "Ġsahtecilik": 9547, "Ġ?Ċ": 9548, "ĠduruÅŁmalÄ±": 9549, "ling": 9550, "Ġorijinal": 9551, "mara": 9552, "ĠonanmasÄ±na": 9553, "ĠÃ¼s": 9554, "Ã¼lÃ¼r": 9555, "Ġvaka": 9556, "Ġbirimi": 9557, "Ġyerinin": 9558, "Ġfinal": 9559, "ĠRad": 9560, "alog": 9561, "ĠKAR": 9562, "ĠÃ¶nÃ¼mÃ¼zdeki": 9563, "ĠdayandÄ±klarÄ±": 9564, "BA": 9565, "ĠFeder": 9566, "ĠBaÅŁkanlar": 9567, "ĠkÃ¢r": 9568, "ĠÃ§Ä±kmÄ±ÅŁtÄ±r": 9569, "unuzun": 9570, "ĠÃ§alÄ±ÅŁmalarÄ±nÄ±n": 9571, ".maddesinin": 9572, "ĠgÃ¶revini": 9573, "ĠSebepleri": 9574, "mes": 9575, "ĠdoÄŁrul": 9576, "liÄŁinden": 9577, "Ã®r": 9578, "ĠSilah": 9579, "ĠkÄ±smÄ±nÄ±": 9580, "ĠtekerrÃ¼r": 9581, "ĠdÃ¼zeltilerek": 9582, "ĠdaÄŁÄ±lÄ±mÄ±": 9583, "ĠanlamÄ±nda": 9584, "ĠPol": 9585, "Ġofis": 9586, "-f": 9587, "Ġpiyasaya": 9588, "che": 9589, "Ã§isi": 9590, "Ġbelirlenmesinde": 9591, "Ġhaberi": 9592, "IT": 9593, "anlarÄ±n": 9594, "Ġmeyv": 9595, "ĠdeÄŁiÅŁikliÄŁi": 9596, "dÃ¼ÄŁÃ¼nÃ¼": 9597, "ĠTC": 9598, "Ġchan": 9599, "iciler": 9600, "ĠÃĸN": 9601, "Ġnelerdir": 9602, "Ġnazar": 9603, "lamalar": 9604, "ĠgÃ¶rmÃ¼ÅŁ": 9605, "ĠgÃ¶stermek": 9606, "Ġparlak": 9607, "ĠÃ¼stÃ¼ne": 9608, "ĠJohn": 9609, "ĠdÃ¼zenleyen": 9610, "do": 9611, "ĠDuy": 9612, "Ġalb": 9613, "ĠDeÄŁiÅŁiklik": 9614, "EH": 9615, "ĠKuvvet": 9616, "ĠbaÅŁÄ": 9617, "Ġbeton": 9618, "ĠYargÄ±lama": 9619, "Ġtavsiy": 9620, "ĠbaÅŁÄ±": 9621, "âĢĻÃ¼n": 9622, "ĠhatÄ±rlat": 9623, "ĠyarÄ±n": 9624, "ĠAnn": 9625, "ĠTEVDÄ°Ä°NE": 9626, "ĠkulÃ¼p": 9627, "ĠKoruma": 9628, "ĠdÃ¶nemin": 9629, "ĠtakÄ±mÄ±": 9630, "ĠGEREK": 9631, "estiv": 9632, "ĠaÄŁÄ±z": 9633, "ĠÃ¶ÄŁrenmek": 9634, "ĠadayÄ±": 9635, "ukur": 9636, "Bas": 9637, "ĠTurkey": 9638, "ample": 9639, "ier": 9640, "ĠÄ°talya": 9641, "ĠMin": 9642, "ĠAraÃ§": 9643, "ĠkayÄ±tlarÄ±": 9644, "Ġmutluluk": 9645, "Ġdevelop": 9646, "ĠÃ¶ÄŁrencileri": 9647, "ĠkÃ¼m": 9648, "ĠzorundadÄ±r": 9649, "ĠbileÅŁen": 9650, "Ġyedek": 9651, "Ġistedik": 9652, "ĠiÅŁlerin": 9653, "ĠSitesi": 9654, "Ġdenetimli": 9655, "Allah": 9656, "Ġmutfak": 9657, "Ġ[...": 9658, "Ġdans": 9659, "ĠKendi": 9660, "ĠaÄŁz": 9661, "xi": 9662, "ĠAda": 9663, "ĠPazartesi": 9664, "ĠHD": 9665, "Ã¼min": 9666, "Ġtwo": 9667, "Ġkilit": 9668, "Ġfiili": 9669, "madÄ±ÄŁÄ±ndan": 9670, "Ġilkesi": 9671, "204": 9672, "Ġbizzat": 9673, "ĠyÃ¼klenen": 9674, "ĠMilleti": 9675, "ĠkÃ¼Ã§": 9676, "ĠPolis": 9677, "ĠTebliÄŁname": 9678, "Ä°YOR": 9679, "á¸³": 9680, "ĠgeliÅŁtirmek": 9681, "oug": 9682, ".F": 9683, "472": 9684, "ĠUYAP": 9685, "ĠbiliÅŁim": 9686, "imle": 9687, "melerine": 9688, "ĠyarÄ±ÅŁma": 9689, "Ġvurgul": 9690, "ĠÃĸzellikleri": 9691, "resel": 9692, "doÄŁ": 9693, "kun": 9694, "eysel": 9695, "Ġgeb": 9696, "ĠÃ§ocuÄŁu": 9697, "ĠÄ°N": 9698, "larÄ±dÄ±r": 9699, "ound": 9700, "Ä°ÅŁte": 9701, "Ġnas": 9702, "ĠodasÄ±": 9703, "Ã§ilerin": 9704, "oru": 9705, "Ġplastik": 9706, ".;": 9707, "PS": 9708, "ĠeÄŁilim": 9709, "Ġiadesi": 9710, "ĠÃĩarÅŁamba": 9711, "SÃ¶z": 9712, "ĠkÄ±v": 9713, "ĠbelirlendiÄŁi": 9714, "Ġminimum": 9715, "Ġgelerek": 9716, "ĠED": 9717, "ĠDoktor": 9718, "ĠbaÅŁarÄ±sÄ±z": 9719, "ĠarkadaÅŁlÄ±k": 9720, "/m": 9721, "ĠkaldÄ±rÄ±lmasÄ±na": 9722, "Ġmeclis": 9723, "tikÃ§e": 9724, "ĠTeh": 9725, "ĠyaÅŁÄ±yor": 9726, "ĠÃ§Ä±kmÄ±ÅŁ": 9727, "ĠSci": 9728, "Ġdisiplin": 9729, "Ġbulma": 9730, "Ġolaya": 9731, "ĠmaÄŁaz": 9732, "GE": 9733, "Ġtohum": 9734, "Ġdifferent": 9735, "ASTAN": 9736, "ĠanÄ": 9737, "Ġsinema": 9738, "lant": 9739, "ĠaÄŁÄ±rlÄ±ÄŁÄ±": 9740, "Ġbekleniyor": 9741, "ĠgÃ¼z": 9742, "ĠÃ§alÄ±ÅŁmalarÄ±n": 9743, "ĠtanÄ±tÄ±m": 9744, "ĠanÄ±": 9745, "ĠAfrika": 9746, "Ã§ilik": 9747, "AynÄ±": 9748, "avuz": 9749, "ĠSalÄ±": 9750, "ĠverdiÄŁini": 9751, "Ġsorular": 9752, "Ã§u": 9753, "ĠkazanÄ±lmÄ±ÅŁ": 9754, "Ġcor": 9755, "ĠdosyasÄ±nda": 9756, "lon": 9757, "enme": 9758, "ĠbaÅŁlayacak": 9759, "Ġkapsayan": 9760, "Ġatmos": 9761, "Ġhavuz": 9762, "ĠDurum": 9763, "Ġsevg": 9764, "ĠayrÄ±m": 9765, "ĠMor": 9766, "ĠaÃ§an": 9767, "Har": 9768, "ĠyaptÄ±ÄŁÄ±mÄ±z": 9769, "Ġgalib": 9770, "ostbet": 9771, "ĠgÃ¶reve": 9772, "ĠaltÄ±nÄ±": 9773, "ĠkalmasÄ±": 9774, "Ġetmeyi": 9775, "ĠarkadaÅŁÄ": 9776, "ĠarkadaÅŁÄ±": 9777, "ĠgÃ¼mrÃ¼k": 9778, ".N": 9779, "ĠdiÄŁ": 9780, "uro": 9781, "Ġharcama": 9782, "bÄ": 9783, "Ġegzersiz": 9784, "ĠDef": 9785, "672": 9786, "iner": 9787, "Ġkurmak": 9788, "ĠJournal": 9789, "ĠGERÄ°": 9790, "ĠÃĩEVR": 9791, "Ġsaatleri": 9792, "Ġhadis": 9793, "Ġelement": 9794, ">Or": 9795, "astik": 9796, "ĠgÃ¼v": 9797, "gÃ¼l": 9798, "lt": 9799, "Ø´": 9800, "ĠAS": 9801, "ĠPsik": 9802, "Ġgerekirse": 9803, "adÄ±ÄŁÄ±nÄ±": 9804, "ĠLigi": 9805, ".(": 9806, "Ġsistemine": 9807, "ometre": 9808, "297": 9809, "ĠayakkabÄ±": 9810, "ĠMeslek": 9811, "ÄŀR": 9812, "menizi": 9813, "ĠMeclisi": 9814, "Ã§inin": 9815, "ĠTor": 9816, "Ġdarb": 9817, "Ġhaberdar": 9818, "aÄŁÄ±nda": 9819, "alÄ±n": 9820, "ĠtÃ¼rleri": 9821, "ĠsÃ¼rdÃ¼ÄŁÃ¼": 9822, "Ġetkisini": 9823, "Ġbeyin": 9824, "isar": 9825, "ĠterÃ¶rist": 9826, "ĠTÃľRK": 9827, "Ġufak": 9828, "ĠbÃ¶lgeye": 9829, "aden": 9830, "ĠiÅŁten": 9831, "Rus": 9832, "ĠTasarÄ±m": 9833, "Ãĸte": 9834, "ĠgÃ¶rÃ¼ntÃ¼l": 9835, "ĠaylarÄ±nda": 9836, "ĠgÃ¶m": 9837, "Ġlen": 9838, "ĠÅŁirketleri": 9839, "360": 9840, "lock": 9841, "ĠdirenÃ§": 9842, "lamasÄ±yla": 9843, "ĠfirmasÄ±": 9844, "Ġkats": 9845, "ĠÃ¶zelliklerini": 9846, "ĠKaf": 9847, "unuza": 9848, "ĠOysa": 9849, "ĠReh": 9850, "Ġmuhab": 9851, "con": 9852, "Ġgurur": 9853, "ĠkararÄ±nÄ±": 9854, "Ġchat": 9855, "Ġheyet": 9856, "Man": 9857, "Devlet": 9858, "ĠProjesi": 9859, "ĠComp": 9860, "Ġederiz": 9861, "ĠdeÄŁiÅŁtirilen": 9862, "ĠbatÄ±": 9863, "Ġplatformu": 9864, "ĠÃ§alÄ±ÅŁmalarÄ±na": 9865, "ĠgeleceÄŁ": 9866, "ĠhazÄ±rla": 9867, "Ġantren": 9868, "-)": 9869, "ĠortamÄ": 9870, "ĠortamÄ±": 9871, "ĠyapÄ±p": 9872, "ness": 9873, "ĠfarkÄ±n": 9874, "Ġdevred": 9875, "unmasÄ±": 9876, "ĠyÃ¼kÃ¼mlÃ¼": 9877, "Ġkayde": 9878, "Ġnegatif": 9879, "lamayacaÄŁÄ±": 9880, "Ġani": 9881, "ĠÃ¶nlemek": 9882, "Ġkaybetti": 9883, "ĠbaÅŁlamÄ±ÅŁ": 9884, "Ġwork": 9885, "rosoft": 9886, "Ġyerin": 9887, "289": 9888, "sus": 9889, "Ġgidi": 9890, "mik": 9891, "ĠkÄ±rÄ±k": 9892, "hid": 9893, "Ġsaatlerinde": 9894, "tiÅŁ": 9895, "Ġdenklem": 9896, "ĠyapÄ±lÄ±yor": 9897, "ĠtecavÃ¼z": 9898, "ĠdÃ¼zenlenmiÅŁtir": 9899, "Ġolamaz": 9900, "Ġolmasa": 9901, "ĠgerÃ§ekleÅŁtiÄŁi": 9902, "ĠYa": 9903, "ĠyaÄŁÄ±": 9904, "ilirken": 9905, "ĠMadde": 9906, "ĠYaÅŁam": 9907, "Ġtaraftar": 9908, "ĠgeliÅŁimi": 9909, "ĠsatÄ±ÅŁÄ±": 9910, "Ġuyku": 9911, "ĠiÅŁbu": 9912, "struc": 9913, "iyaret": 9914, "agat": 9915, "ĠbelirlenmiÅŁ": 9916, "ĠrahatlÄ±kla": 9917, "lamalarÄ±": 9918, "Ġikin": 9919, "Ġanlamak": 9920, "ĠSakarya": 9921, "Ġkaybol": 9922, "ĠTanrÄ±": 9923, "ĠyapmayÄ±": 9924, "ĠÅŁark": 9925, "Ġhayran": 9926, "ĠsavunmalarÄ±na": 9927, "azen": 9928, "Mil": 9929, "ocuÄŁ": 9930, "âĢĻu": 9931, "ÃľrÃ¼n": 9932, "Ġharita": 9933, "ĠFa": 9934, "TEB": 9935, "ĠLev": 9936, "Ġbenims": 9937, "Ġkoc": 9938, "ĠUkrayna": 9939, "yaj": 9940, "-t": 9941, "kap": 9942, "Ġibr": 9943, "utin": 9944, "ĠrÃ¶": 9945, "Ġfirmalar": 9946, "ĠÅŀampiyon": 9947, "Mar": 9948, "ĠprogramlarÄ±": 9949, "/s": 9950, "Ġdurumunu": 9951, "ĠAla": 9952, "?âĢĿ": 9953, "Ġsendik": 9954, "ĠbÃ¶lgesi": 9955, "daÄŁÄ": 9956, "daÄŁÄ±": 9957, "ĠAD": 9958, "ĠNec": 9959, "ĠSivas": 9960, "hats": 9961, "ĠKadastro": 9962, "ĠvatandaÅŁlar": 9963, "ĠSanÄ±ÄŁÄ±n": 9964, "lini": 9965, "ĠbaÅŁlÄ±ÄŁÄ±": 9966, "ĠtaÅŁÄ±y": 9967, "ĠolabileceÄŁi": 9968, "ĠsÃ¶zleri": 9969, "ĠZor": 9970, "ĠtÄ±bbi": 9971, "Ġeklenmesi": 9972, "ĠboÄŁ": 9973, "Ġdili": 9974, "ĠYoluna": 9975, "esir": 9976, "Ġolgun": 9977, "eciler": 9978, "ĠGÃ¼ncelleme": 9979, "Ġmahalle": 9980, "ĠKahraman": 9981, "Ġcerrah": 9982, "work": 9983, "Ġyahut": 9984, "ĠtutarlÄ±": 9985, "Ġalgor": 9986, "ĠNer": 9987, "ĠhÃ¢kim": 9988, "Ġgarant": 9989, "Ġhttps": 9990, "duÄŁunuz": 9991, "ketbol": 9992, "ĠaÃ§Ä±klamalar": 9993, "ĠistediÄŁini": 9994, "ĠkarÅŁÄ±lay": 9995, "ĠkolaylÄ±kla": 9996, "ĠÃ¶mr": 9997, "ĠSim": 9998, "Ġmerkezinde": 9999, ")}": 10000, "Ġfabrika": 10001, "rel": 10002, "Ġmahallinden": 10003, "ĠInstagram": 10004, "ĠÄ°ndir": 10005, "Ġmatematik": 10006, "ÑĢ": 10007, "ĠAp": 10008, "chi": 10009, "Aile": 10010, "tro": 10011, "amaÅŁ": 10012, "Ġtatmin": 10013, "320": 10014, "Ġfirst": 10015, "Ġnakit": 10016, "val": 10017, "YÃ¶n": 10018, ".L": 10019, "ĠÅŁimdilik": 10020, "ĠdeÄŁerini": 10021, "Ġbelgede": 10022, "unus": 10023, "ĠÃĩanakkale": 10024, "ĠÅŀen": 10025, "Ġkendinizi": 10026, "Kr": 10027, "Ġiktid": 10028, "Ġtesli": 10029, "ĠHac": 10030, "ebilirler": 10031, "ĠBasÄ±n": 10032, "232": 10033, "Ġversiyon": 10034, "ĠKup": 10035, "ĠÃ¶denmesine": 10036, "Ã§Ä±n": 10037, ">Ä°": 10038, ".P": 10039, "Ġmakinesi": 10040, "ĠazÄ±ndan": 10041, "Ġtahliye": 10042, "sig": 10043, "emediÄŁi": 10044, "Evet": 10045, "Ġparmak": 10046, "Ġliter": 10047, "Ġyou": 10048, "Ġsaha": 10049, "ĠÄ°LE": 10050, "cep": 10051, "ĠPla": 10052, "Ġvari": 10053, "ena": 10054, "ĠØ³": 10055, "ĠalÄ±rken": 10056, "Gir": 10057, "Ġtapuya": 10058, "Ġhekim": 10059, "ĠyÄ±llardÄ±r": 10060, "Ġmim": 10061, "Ġahlak": 10062, "ĠVER": 10063, "ĠÅŁair": 10064, "mÃ¼yor": 10065, "ĠkurallarÄ±na": 10066, "Ġzem": 10067, "ĠNev": 10068, "aze": 10069, "ĠParis": 10070, "ĠgÃ¶rÃ¼ÅŁme": 10071, "Ġperiy": 10072, "Ġdata": 10073, "Yas": 10074, "Ġpanel": 10075, "unum": 10076, "dÄ±rÄ±cÄ±": 10077, "ĠkesinleÅŁmiÅŁ": 10078, "Ver": 10079, "ĠvarlÄ±ÄŁÄ±nÄ±": 10080, "Ġyolculuk": 10081, "ĠPerÅŁembe": 10082, "St": 10083, "bilmektedir": 10084, "ĠCumartesi": 10085, "ĠhatÄ±rla": 10086, "ĠÅŁÃ¼pheli": 10087, "ĠdanÄ±ÅŁman": 10088, "Ġilamda": 10089, "ĠolaÄŁanÃ¼stÃ¼": 10090, "Ġfikr": 10091, "ĠSez": 10092, "ĠdÃ¼zgÃ¼n": 10093, "iyye": 10094, "ĠtarzÄ": 10095, "ĠtarzÄ±": 10096, "Ġkonsantrasyon": 10097, "Ġevren": 10098, "suzluk": 10099, "acter": 10100, "Kullan": 10101, "ĠOnline": 10102, "ĠsektÃ¶rÃ¼": 10103, "ĠSorum": 10104, "ĠolmanÄ±n": 10105, "Ġdavalar": 10106, "ĠBirleÅŁik": 10107, "Ġml": 10108, "ĠYÃ¶netmel": 10109, "ĠFilistin": 10110, "Ġsaati": 10111, "Ġgrubunda": 10112, "ÄŁÃ¼nÃ¼": 10113, "ĠAdli": 10114, "KA": 10115, "ĠalakalÄ±": 10116, "ĠDes": 10117, "205": 10118, "ĠbaÅŁÄ±ndan": 10119, "Ð½": 10120, "ĠÃ¶ldÃ¼rme": 10121, "ĠedeceÄŁiz": 10122, "ues": 10123, "ĠzararlÄ±": 10124, "Dair": 10125, "ĠyumuÅŁak": 10126, "iÅŁtirme": 10127, "asi": 10128, "225": 10129, "TT": 10130, ".BaÅŁ": 10131, "etle": 10132, "espor": 10133, "mayacaÄŁÄ±": 10134, "Ġedenin": 10135, "ĠgÃ¶rÃ¼yoruz": 10136, "ĠMe": 10137, "Ãİ": 10138, "ĠMalatya": 10139, "Ġriv": 10140, "DÄ°R": 10141, "Ġdahilinde": 10142, "ĠKaya": 10143, "ĠsÃ¼per": 10144, "Muh": 10145, "ĠKarÅŁ": 10146, "ĠHÄ±r": 10147, "atlÄ±": 10148, "ĠSayÄ±sÄ±": 10149, "ĠkapatÄ±lmasÄ±na": 10150, "AÄŁÄ±r": 10151, "Ġekonomi": 10152, "Ġuzay": 10153, "Ġabout": 10154, "edÃ¼r": 10155, "ĠaldÄ±m": 10156, "ĠmÃ¼kelle": 10157, "Ġkast": 10158, "UyuÅŁmazlÄ±k": 10159, "SUÃĩLAR": 10160, "KÄ°": 10161, "tÄ±klarÄ±nÄ±": 10162, "ĠtartÄ±ÅŁÄ±ldÄ±ÄŁÄ±": 10163, "Ġzamanla": 10164, "Ġseviyesi": 10165, "ÑĤ": 10166, "bÄ±": 10167, "ĠÃ¶dey": 10168, "ĠÃ¶ÄŁretmenlerin": 10169, "ĠsÃ¼resince": 10170, "Ġsembol": 10171, "Ġcumhur": 10172, "--------": 10173, "ĠaldÄ±klarÄ±": 10174, "tant": 10175, "ĠÅŁirketler": 10176, "ILMASINA": 10177, "Ġsahipleri": 10178, "ĠDakika": 10179, "Ġ|Ċ": 10180, "ĠKÄ±sa": 10181, "Ġseven": 10182, "Ġyetkisinin": 10183, "Ġsevgi": 10184, "Ä°cra": 10185, "Ġdepolama": 10186, "Ġdedim": 10187, "ert": 10188, "ÙİØ§": 10189, "ĠgerekÃ§elerle": 10190, "ĠMesel": 10191, "Ġgetirir": 10192, "ĠDÄ±ÅŁiÅŁleri": 10193, "Ġgroup": 10194, "ĠTap": 10195, "ĠortaklÄ±k": 10196, "mÄ±yorum": 10197, "ward": 10198, "ĠboÅŁluk": 10199, "ĠsÃ¶zcÃ¼k": 10200, "arda": 10201, "Ä±ldÄ±ÄŁÄ±ndan": 10202, "ĠkonularÄ±": 10203, "Figure": 10204, "Ġderd": 10205, "ĠBaÅŁvuranlar": 10206, "ible": 10207, "ff": 10208, "pro": 10209, "Ġatom": 10210, "ĠKÄ±lÄ±Ã§daroÄŁlu": 10211, "Ġborcu": 10212, "683": 10213, "eyerek": 10214, "Ġro": 10215, "lerdi": 10216, "DosyanÄ±n": 10217, "ĠgerekÃ§eleriyle": 10218, "Ġtamir": 10219, "ĠBunlardan": 10220, "ĠÃ§evresinde": 10221, "Ġekmek": 10222, "ĠkaÅŁÄ±ÄŁÄ±": 10223, "Ġoynamak": 10224, "ĠyaralÄ±": 10225, "ĠRed": 10226, "lambda": 10227, "ĠyÃ¶netici": 10228, "ĠuygulandÄ±ÄŁÄ±": 10229, "ĠolmadÄ±": 10230, "Ġmaliyeti": 10231, "Hukuk": 10232, "Ġalg": 10233, "Ġtakdiren": 10234, "ĠKonut": 10235, "Ġekipman": 10236, "ĠkÄ±yÄ±": 10237, "Anasayfa": 10238, "lazÄ±ÄŁ": 10239, "ĠsÃ¼renin": 10240, "Alman": 10241, "LÄ°ÄŀNA": 10242, "duÄŁunda": 10243, "ĠIt": 10244, "ĠCep": 10245, "lup": 10246, "ĠolmayÄ±p": 10247, "abileceÄŁini": 10248, "artman": 10249, "Ġmahalline": 10250, "Ġdez": 10251, "ĠMÃ¼cadele": 10252, "kemizde": 10253, "Ġvekillerince": 10254, "506": 10255, "ĠrÄ±z": 10256, "agement": 10257, "Ġgidip": 10258, "Ġblog": 10259, "nuv": 10260, "ĠÃ§oÄŁunlukla": 10261, "ĠdÃ¼zeni": 10262, "ĠdavasÄ±nda": 10263, "Ġotor": 10264, "ining": 10265, "incan": 10266, "ĠkoronavirÃ¼s": 10267, "ĠÃ¶rneÄŁin": 10268, "TV": 10269, "ĠdÃ¼ÄŁÃ¼n": 10270, "ĠHukuku": 10271, "Ġestetik": 10272, "ults": 10273, "$,": 10274, "ĠSavunma": 10275, "Ġcevab": 10276, "ĠPC": 10277, "Ġparselin": 10278, "Ġyerleri": 10279, "itik": 10280, "ĠCol": 10281, "Ġizlem": 10282, "Ġyararlanma": 10283, "Ġgidiyor": 10284, "ĠBayramÄ": 10285, "ĠBayramÄ±": 10286, "uth": 10287, "ept": 10288, "Ġhakem": 10289, "iliÄŁinden": 10290, "elif": 10291, "Merhaba": 10292, "Ve": 10293, "layÄ±nÄ±z": 10294, "ĠSÄ±nav": 10295, "Ãľl": 10296, "ĠÄ°f": 10297, "the": 10298, "(x": 10299, "ĠÃ§Ä±karÄ±lan": 10300, "Ġsendika": 10301, "iti": 10302, "ĠsalÄ±": 10303, "Ġevden": 10304, "ĠKAY": 10305, "Ġisteyenler": 10306, "ĠiÅŁÃ§ilik": 10307, "RÃ¼yada": 10308, "YÃ¼ksek": 10309, "ceÄŁini": 10310, "demi": 10311, "Burada": 10312, "ĠmaÄŁaza": 10313, "ĠhastalarÄ±n": 10314, "ĠRab": 10315, "berg": 10316, "Ab": 10317, "Ġmuht": 10318, "BO": 10319, "ute": 10320, "gresi": 10321, "ĠÃ¼m": 10322, "emizi": 10323, "ĠdurumlarÄ±": 10324, "Yorum": 10325, "ĠESASTAN": 10326, "ĠvakÄ±f": 10327, "Ġkonusudur": 10328, "ĠgÃ¼cÃ¼nÃ¼": 10329, "ĠUr": 10330, "ĠpaydaÅŁ": 10331, "Ġkesint": 10332, "Ð¸": 10333, "Ã¼nc": 10334, "ĠEvet": 10335, "onim": 10336, "ERS": 10337, "ÃľLDÃľ": 10338, "ilmemesi": 10339, "YÄ°": 10340, "Ġverilerin": 10341, "ĠsÄ±klÄ±kla": 10342, "era": 10343, "iller": 10344, "654": 10345, "ĠHesap": 10346, "ĠolmasÄ±ndan": 10347, "ĠhaklarÄ±nÄ±": 10348, "ĠSavc": 10349, "Ġhusumet": 10350, "Ġseviyede": 10351, "LO": 10352, "ĠStu": 10353, "Ġtopluluk": 10354, "ĠAzerbaycan": 10355, "Ġkombin": 10356, "Ġbunlardan": 10357, "Ġnafak": 10358, "ĠMahkemesinden": 10359, "lÄ±kta": 10360, "Ġhitap": 10361, "Ama": 10362, "ĠyaÅŁa": 10363, "Ġarzu": 10364, "ating": 10365, "ĠUzman": 10366, "ĠkatÄ±lÄ±mÄ±": 10367, "leÅŁen": 10368, "Ġvizyon": 10369, "ĠtebliÄŁname": 10370, "Ġdua": 10371, "ĠBM": 10372, "kili": 10373, "Ã¼yÃ¼": 10374, "Ġbonusu": 10375, "ĠmeÅŁru": 10376, "Ġnam": 10377, "ublic": 10378, "ĠÙĨ": 10379, "450": 10380, "TEBLÄ°ÄŀNA": 10381, "Ġolg": 10382, "ĠRoma": 10383, "ĠyÃ¼kÃ¼mlÃ¼lÃ¼ÄŁ": 10384, "Ġbeslen": 10385, "ĠsÃ¼rÃ¼m": 10386, "kim": 10387, "Ġvurgulan": 10388, "AraÅŁtÄ±rma": 10389, "ĠtarafÄ": 10390, "Ġruhsat": 10391, "deÄŁer": 10392, "ĠtarafÄ±": 10393, "Ġporn": 10394, "ĠÃ¼zeri": 10395, "ĠÅŁirkete": 10396, "ĠÃ§apÄ±nda": 10397, "ĠCilt": 10398, "ilerinde": 10399, "Ġbilgilerini": 10400, "ĠOper": 10401, "Ġkahve": 10402, "^{-": 10403, "Ġtakibi": 10404, "Ġkonuya": 10405, "ments": 10406, "Ġduyurdu": 10407, "kas": 10408, "pos": 10409, "lÃ¼ÄŁÃ¼ne": 10410, "Ġyoksunluk": 10411, "ĠhÃ¼rriyet": 10412, "imine": 10413, "emeyecek": 10414, "ĠyÃ¼kseliÅŁ": 10415, "ĠKabul": 10416, "Dem": 10417, "326": 10418, "254": 10419, "....Ċ": 10420, "!!": 10421, "Ġiyon": 10422, "ĠinfazÄ±": 10423, "Ġthere": 10424, "Ġbeklem": 10425, "Ġmahkum": 10426, "ĠyÄ±llarÄ±nda": 10427, "ĠUniversit": 10428, "ĠmalÄ±n": 10429, "ĠodaklÄ±": 10430, "ĠdavacÄ±dan": 10431, "ĠeÄŁil": 10432, "ĠDoÄŁal": 10433, "Ġstratejik": 10434, "Ġizleyen": 10435, "caÄŁÄ±nÄ±n": 10436, "ĠgÃ¼venliÄŁini": 10437, "'nce": 10438, "ype": 10439, "ĠEurope": 10440, "Ġpir": 10441, "ĠEkonomik": 10442, "Ġmineral": 10443, "Ġverdikleri": 10444, "ĠniÅŁ": 10445, "uel": 10446, "ĠÃĩeÅŁit": 10447, "Ġkurumlar": 10448, "Ġsenedi": 10449, "Ġceph": 10450, "Ġhaftada": 10451, "niÄŁi": 10452, "ĠyÃ¶nÃ¼ndeki": 10453, "ĠkÃ¶ken": 10454, "Ġpen": 10455, "Ġinto": 10456, "ĠSaÃ§": 10457, "cc": 10458, "Ter": 10459, "ĠBoÅŁ": 10460, "Ġlevel": 10461, "Ġdavalarda": 10462, "ĠiÅŁg": 10463, "ĠMÃ¼ÅŁteri": 10464, "cdot": 10465, "TIR": 10466, "ĠgÃ¶v": 10467, "ĠhayÄ±rlÄ±": 10468, "ĠMalz": 10469, "Ġengelli": 10470, "Ġsaniye": 10471, "amur": 10472, "Ġperi": 10473, "ĠyapÄ±ya": 10474, "ozit": 10475, "Ġsc": 10476, "ĠgÃ¶zÃ¼k": 10477, "Ġkuy": 10478, "Ġkonuyu": 10479, "ĠTrump": 10480, "Ġistifa": 10481, "ĠbÄ±Ã§ak": 10482, "Ġevinde": 10483, "212": 10484, "ĠaltyapÄ": 10485, "ĠaltyapÄ±": 10486, "tÄ±ktan": 10487, "Ġyoktu": 10488, "ĠkatÄ±lanÄ±n": 10489, "yak": 10490, "ĠÃĤ": 10491, "ĠDÃ¶nem": 10492, "ĠBirÃ§ok": 10493, "ĠMaliye": 10494, "Ġsome": 10495, "ency": 10496, "ĠtamamÄ±nÄ±n": 10497, "api": 10498, "diniz": 10499, "Ä°SÄ°": 10500, "Ġtehlikeye": 10501, ")-": 10502, "lamaktadÄ±r": 10503, "ĠTep": 10504, "ĠÃ§alÄ±ÅŁmalarda": 10505, "ĠyapÄ±nÄ±n": 10506, "ĠForm": 10507, "ĠolanlarÄ±n": 10508, "DV": 10509, "SM": 10510, "ĠSÃ¶zleÅŁmesi": 10511, "Bey": 10512, "asebe": 10513, "masÄ±dÄ±r": 10514, "ĠyararlÄ±": 10515, "Ġsuch": 10516, "Ġkaydedilmesine": 10517, "Ġhareketi": 10518, "ason": 10519, "lamada": 10520, "Ġderg": 10521, "Ġeyleminin": 10522, "Ġprojeler": 10523, "ETÄ°M": 10524, "ĠÃ¶mÃ¼r": 10525, "Ġbireyin": 10526, "Ġyorumlar": 10527, "ĠaraÃ§lar": 10528, "ĠÃ§or": 10529, "TER": 10530, "ĠanlattÄ±": 10531, "ĠtarafÄ±nda": 10532, "ĠÄ°t": 10533, "ĠgÃ¶sterg": 10534, "GÃ¼ncel": 10535, "Ġkiralama": 10536, "ĠDenizli": 10537, "Ġortada": 10538, "ĠniteliÄŁindeki": 10539, "ĠolduÄŁum": 10540, "BaÅŁkan": 10541, "Ġkadastrosu": 10542, "-m": 10543, "-SanÄ±k": 10544, "lÃ¼ÄŁÃ¼nÃ¼": 10545, "ĠaraÅŁtÄ±rmalar": 10546, "ĠyazÄ±k": 10547, "uyla": 10548, "Ġodas": 10549, "ĠbiÃ§imi": 10550, "Ä«": 10551, "Ġbilinmektedir": 10552, "ustur": 10553, ">I": 10554, "ĠMaÄŁ": 10555, "ĠhÃ¢": 10556, "Ġ.Ċ": 10557, "Ġettim": 10558, "Ġbence": 10559, "Ġihtar": 10560, "Ð³": 10561, "ĠBilimleri": 10562, "Ġkonser": 10563, "ĠgÃ¶revsizlik": 10564, "fÃ¶y": 10565, "Ġbelirlenir": 10566, "ebilirim": 10567, "ĠHayvan": 10568, "Ġisabetsiz": 10569, "ĠbÃ¼yÃ¼t": 10570, "ĠgÃ¶stermiÅŁtir": 10571, "hem": 10572, "ĠÅŁartlar": 10573, "Ġkoruyucu": 10574, "ĠHazineye": 10575, "Ġdirekt": 10576, "ĠDal": 10577, "Ġbisiklet": 10578, "ĠÃ§an": 10579, "ĠkÄ±lÄ±": 10580, "Ġlaborat": 10581, "Ġmektup": 10582, "Ġsad": 10583, "pir": 10584, "Ġje": 10585, "))": 10586, "ĠgÃ¼zellik": 10587, "diven": 10588, "Ġtablet": 10589, "Ġetmeniz": 10590, "ĠBorÃ§lar": 10591, "aph": 10592, "ĠEmek": 10593, "ĠkatÄ±ldÄ±ÄŁÄ±": 10594, "ĠzamanlÄ±": 10595, "BUL": 10596, "liliÄŁini": 10597, "ĠboÅŁan": 10598, "Ġbuldu": 10599, "ĠÅŁehrin": 10600, "Ġsevin": 10601, "676": 10602, "Ġbeklet": 10603, "Ġgraf": 10604, "Etik": 10605, "Ġyapay": 10606, "Ġmetrekare": 10607, "ĠTedav": 10608, "ĠseÃ§ilen": 10609, "Ä±lmamÄ±ÅŁ": 10610, "ĠcÃ¼mle": 10611, "ĠOkulu": 10612, "Ġzamana": 10613, "Ġdurumlar": 10614, "ĠperformansÄ±": 10615, "Ġistin": 10616, "Ġrobot": 10617, "ĠFestiv": 10618, "ĠiÃ§inden": 10619, "Ġakademik": 10620, "ĠKu": 10621, "Åŀimdi": 10622, ".maddesinde": 10623, "Ġzamanlar": 10624, "ATI": 10625, "ĠsayÄ±lÄ±r": 10626, "ĠsatÄ±": 10627, "ĠahÅŁap": 10628, "ĠalanlarÄ±nda": 10629, "ĠAdam": 10630, "ĠiÅŁletmenin": 10631, "Ġkoltuk": 10632, "Ġbulama": 10633, "Ġevin": 10634, "ĠÃĩEVRÄ°LMESÄ°NE": 10635, "ĠkÃ¶p": 10636, "ĠaraÅŁtÄ±rmada": 10637, "Ġanlar": 10638, "ĠparayÄ±": 10639, "ĠiÅŁlemlerinin": 10640, "ĠÄ°mparator": 10641, "ĠÅŁirketlerin": 10642, "Mal": 10643, "sirle": 10644, "Ä°kinci": 10645, "Ġmethod": 10646, "ayolu": 10647, "idin": 10648, "ĠLa": 10649, "Ã¢hil": 10650, "Ä°LK": 10651, "ĠCor": 10652, "ĠsÃ¶yler": 10653, "ilmeden": 10654, "ĠKral": 10655, ".âĢĻ": 10656, "Ġsisteme": 10657, "Ġsessiz": 10658, "Ġdenem": 10659, "Ġvide": 10660, "270": 10661, "ĠÅŁarj": 10662, "ĠADI": 10663, "istal": 10664, "ĠKazan": 10665, "Ä±nma": 10666, "azÄ±r": 10667, "Ġetmez": 10668, "ilmeye": 10669, "ĠbenimsenmiÅŁ": 10670, "Yak": 10671, "Ø£": 10672, "Ã¼lk": 10673, "Ġannesi": 10674, "ĠSol": 10675, "priz": 10676, "Ġkonusundaki": 10677, "ĠYAR": 10678, "SaÄŁlÄ±k": 10679, "ĠgeÃ§tiÄŁi": 10680, "ĠGÃ¶ster": 10681, "á¹": 10682, "Ġkafa": 10683, "ĠbÃ¶lgenin": 10684, "HÃľKÃľMLER": 10685, "ĠkaydÄ±yla": 10686, "Ã»n": 10687, "Ġalabilir": 10688, "Ġadil": 10689, "ux": 10690, "ĠÃ§ekmek": 10691, "635": 10692, "ĠArdÄ±ndan": 10693, "Ġbende": 10694, "ĠÅŁikayetÃ§i": 10695, "ĠÄ±ÅŁÄ±ÄŁÄ±nda": 10696, "Ġvesayet": 10697, "ty": 10698, "Ä±llÄ±": 10699, "ĠfirmanÄ±n": 10700, "Ġirtib": 10701, "Ġsanki": 10702, "ĠÄ°ÅŁletme": 10703, "luÄŁa": 10704, "ĠdÃ¼zenlediÄŁi": 10705, "Ġoranla": 10706, "ĠcÃ¼zdan": 10707, "Em": 10708, "ĠgeÃ§irilen": 10709, "ĠÅŁok": 10710, "Ġmavi": 10711, "ĠCaddesi": 10712, "rosu": 10713, "malarÄ±n": 10714, "Ġfabrik": 10715, "ian": 10716, "ĠYat": 10717, "ĠsÃ¶": 10718, "Ã¼kleer": 10719, "karÅŁÄ±": 10720, "organ": 10721, "Ġhigh": 10722, "Ġrul": 10723, "Ġmahallinde": 10724, "Ġpik": 10725, "ĠyapÄ±yoruz": 10726, "ĠihtiyaÃ§larÄ±nÄ±": 10727, "_n": 10728, "ÄŁday": 10729, "ĠHDP": 10730, "ĠUyuÅŁmazlÄ±k": 10731, "Ġdevreye": 10732, "Ġgruplar": 10733, "ĠartÄ±rmak": 10734, "206": 10735, "Ġmuhakemesi": 10736, "Ġtiyatro": 10737, "ĠAhmed": 10738, "ĠBilgisayar": 10739, "metik": 10740, "ĠEngel": 10741, "Ã¢nÄ±": 10742, "ĠÃĸzgÃ¼r": 10743, "ĠPlay": 10744, "ĠTo": 10745, "Ġpeyn": 10746, "ĠmÃ¼tesel": 10747, "uanÄ±": 10748, "ĠaralarÄ±ndaki": 10749, "lerinize": 10750, "Ġgayet": 10751, "tÄ±larak": 10752, "Ġhaberler": 10753, "ĠÃ¶det": 10754, "ĠSigort": 10755, "Ġhusu": 10756, "amayacak": 10757, "ĠZaten": 10758, "Ġtatili": 10759, "ĠkullanÄ±yor": 10760, "ĠsatÄ±m": 10761, "Ġoyuncular": 10762, "ĠÃ§Ã¶p": 10763, "Ġtehlikeli": 10764, "ĠDet": 10765, "Ġobjektif": 10766, "Ġfrekans": 10767, "ĠTBMM": 10768, "losu": 10769, "Ġcap": 10770, "ech": 10771, "Ġmezar": 10772, "ĠHavalimanÄ±": 10773, "ĠVali": 10774, "Ġbelgelerin": 10775, "ĠÃĸte": 10776, "Ġgereksinim": 10777, "dirne": 10778, "landÄ±ÄŁÄ±nÄ±": 10779, "ĠkazandÄ±": 10780, "ĠsÄ±rt": 10781, "ĠdayandÄ±rÄ±ldÄ±ÄŁÄ±": 10782, "ĠsÃ¼rÃ¼yor": 10783, "Ġdernek": 10784, "ĠdoÄŁu": 10785, "ĠHangi": 10786, "ĠhesabÄ±na": 10787, "ĠHakan": 10788, "ĠyazÄ±sÄ±": 10789, "silen": 10790, "ĠdeÄŁildi": 10791, "ĠhÃ¼kmolunan": 10792, "gÃ¶z": 10793, "culuk": 10794, "ĠkapsamÄ±ndaki": 10795, "Ġederler": 10796, "Ġbenimsenen": 10797, "ĠdÃ¼zel": 10798, "Ġover": 10799, "Ġedilmesine": 10800, "Ġtahsilini": 10801, "ĠgruplarÄ±": 10802, "Ġreg": 10803, "ĠÅŁef": 10804, "Ġvatan": 10805, "ĠMc": 10806, "ĠMetin": 10807, "ĠbulunmamasÄ±": 10808, "ĠÃ§ak": 10809, "ĠÃ¶rnekleri": 10810, "Ãĩek": 10811, "SY": 10812, "Ã¼rt": 10813, "itÃ¶r": 10814, "TEBLÄ°ÄŀNAME": 10815, "ĠsorumluluÄŁu": 10816, "emiyor": 10817, "ĠtaahhÃ¼t": 10818, "ĠkullanÄ±r": 10819, "dents": 10820, "Ġkurumun": 10821, "cÄ±sÄ±nÄ±n": 10822, "Ġmuhafaza": 10823, "ĠHareket": 10824, "Ġhorm": 10825, "ĠiÅŁletmelerin": 10826, "ĠbaÅŁlatÄ±lan": 10827, "TebliÄŁname": 10828, "ĠMedya": 10829, "ĠÃĩak": 10830, "ĠsaptanmÄ±ÅŁtÄ±r": 10831, "ĠkÄ±saca": 10832, "wn": 10833, "Ġfos": 10834, "Ġailesi": 10835, "Ġkaybeden": 10836, "ĠdÃ¼ÅŁÃ¼nÃ¼r": 10837, "igÃ¼r": 10838, "ĠdavranÄ±ÅŁlarÄ±": 10839, "sÃ¼": 10840, "Ġgibidir": 10841, "ĠayrÄ±lan": 10842, "ĠbaÅŁvurma": 10843, "ĠKork": 10844, "ĠKayÄ±t": 10845, "Ġsahibinin": 10846, "ĠZiraat": 10847, "Ġsiteler": 10848, "ĠattÄ±": 10849, "jinal": 10850, "Ġkurma": 10851, "ĠkalÄ±yor": 10852, "ĠbÃ¶lÃ¼mÃ¼ne": 10853, "Ġdiplo": 10854, "-y": 10855, "rough": 10856, "meliÄŁi": 10857, "ĠPap": 10858, "ĠÃĩay": 10859, "ric": 10860, "NAK": 10861, "Ġsistemini": 10862, "Ġferagat": 10863, "Ä±sÄ±ndaki": 10864, "Ġoynama": 10865, "ĠCO": 10866, "ĠkararlaÅŁtÄ±r": 10867, "ective": 10868, "207": 10869, "KAR": 10870, "ĠTav": 10871, "ikayet": 10872, "ĠBonusu": 10873, "Ġradyo": 10874, "ĠkeÅŁfet": 10875, "Ġbulunmak": 10876, "Ġrengi": 10877, "ĠSak": 10878, "ĠPek": 10879, "ĠsÃ¶ylenebilir": 10880, "ebileceÄŁini": 10881, "ĠMotor": 10882, "ĠhaklarÄ±nÄ±n": 10883, "750": 10884, "ĠGÃľN": 10885, "Ġtekli": 10886, "avuÅŁ": 10887, "vin": 10888, "enn": 10889, "lenmiÅŁtir": 10890, "ĠÄ°lÃ§esi": 10891, "Ä°NÄ°": 10892, "ĠpolitikasÄ±": 10893, "ĠfirmamÄ±z": 10894, "ĠgeldiÄŁinde": 10895, "ĠGÃĸRÃľÅŀÃľ": 10896, "GB": 10897, "Ġeylemi": 10898, "Ġdaima": 10899, "ĠÅŁartlarÄ±na": 10900, "luÄŁunu": 10901, "MAK": 10902, "ĠsÄ±nÄ±rlandÄ±r": 10903, "ews": 10904, "Ġlideri": 10905, "Ġdakikada": 10906, "Ġkodu": 10907, "ĠdavacÄ±larÄ±n": 10908, "ĠKonseyi": 10909, "Ġtarla": 10910, "ĠsÄ±ralan": 10911, "umuzun": 10912, "ĺĲ": 10913, "ĠsÄ±fatÄ±yla": 10914, "ĠkÄ±smi": 10915, "dil": 10916, "ĠsavunmalarÄ±n": 10917, "ĠisteÄŁin": 10918, "ĠÃ§ekiyor": 10919, "ĠStratej": 10920, "ĠEmre": 10921, "KÄ±r": 10922, "Ġkadem": 10923, "lasman": 10924, "'ni": 10925, "Ġili": 10926, "Ġmuhat": 10927, "ĠBakÄ±r": 10928, "Ñģ": 10929, "Ġhoca": 10930, "ĠsÃ¼recinin": 10931, "unction": 10932, "ĠkamulaÅŁtÄ±rmasÄ±z": 10933, "ĠoluÅŁturma": 10934, "Ġbkz": 10935, "Ġimpor": 10936, "ĠverildiÄŁini": 10937, "ames": 10938, "madde": 10939, "Ã¼v": 10940, "ĠihraÃ§": 10941, "last": 10942, "ĠÃ§Ä±karÄ±lmasÄ±": 10943, "ĠÚ©": 10944, "Ġreferans": 10945, "ĠList": 10946, "ĠdoÄŁa": 10947, "INDA": 10948, "Ġsuyun": 10949, "KadÄ±n": 10950, "Ġilgilendir": 10951, "ĠSaf": 10952, "Ġkitle": 10953, "ydi": 10954, "Ġsonsuz": 10955, "ĠRoman": 10956, "ences": 10957, "Ceza": 10958, "ELÄ°": 10959, "ĠTeÅŁkil": 10960, "Ġzirv": 10961, "Ġprotest": 10962, "Ġberaberinde": 10963, "Ġtutmak": 10964, "Ġinkar": 10965, "ĠyÃ¶netmelik": 10966, "Ġkel": 10967, "ĠUSD": 10968, "get": 10969, ">p": 10970, "Ġcaz": 10971, "473": 10972, "ĠUniversity": 10973, "Ġihlali": 10974, "ĠbÃ¶lÃ¼mÃ¼n": 10975, "216": 10976, "CumhurbaÅŁkanÄ±": 10977, "daa": 10978, "ĠÄ°nceleme": 10979, "âĢĻyÄ±": 10980, "Mes": 10981, "Ġvah": 10982, "Ġharic": 10983, "Î±": 10984, "lari": 10985, "ERK": 10986, "ĠPost": 10987, "gÄ±Ã§": 10988, "ĠVideo": 10989, "idd": 10990, "tÄ±ÄŁÄ±nda": 10991, "unlu": 10992, "Ġvasf": 10993, "lÄ±lar": 10994, "ĠbaÅŁlÄ±ca": 10995, "mamak": 10996, "ĠHazin": 10997, "ĠpahalÄ±": 10998, "Ġkamyon": 10999, "ution": 11000, "ĠDon": 11001, "Ġsisteminde": 11002, "Ġboyutlu": 11003, "ĠÅŀanlÄ±urfa": 11004, "Ġerkekler": 11005, "Ġbelirlenerek": 11006, "Ġrev": 11007, "ĠyÃ¶ntemler": 11008, "ĠÄ±srar": 11009, "ĠÃ§alÄ±ÅŁmalarÄ±nda": 11010, "cus": 11011, "ps": 11012, "ĠÅŁeye": 11013, "ĠbozmayÄ±": 11014, "ÅŁak": 11015, "ĠOlarak": 11016, "tÄ±kÃ§a": 11017, "Ġihmal": 11018, "Ġimalat": 11019, "now": 11020, "ĠtarÄ±msal": 11021, "ĠanlaÅŁÄ±ldÄ±": 11022, "-L": 11023, "Ġithal": 11024, "Ġhareketli": 11025, "Ä°NA": 11026, "Ġevine": 11027, "ĠYÃĸN": 11028, "})": 11029, "ĠHacÄ±": 11030, "ĠKulÃ¼bÃ¼": 11031, "Ġdurak": 11032, "ĠrahatsÄ±zlÄ±k": 11033, "ĠhÄ±zlandÄ±r": 11034, "ĠyapacaÄŁÄ±": 11035, "ticaret": 11036, "ĠBÃ¼l": 11037, "maraÅŁ": 11038, "acaksÄ±nÄ±z": 11039, "ĠfirmalarÄ±n": 11040, "ĠKitab": 11041, ".a": 11042, "ĠHindistan": 11043, "olution": 11044, "cin": 11045, "ĠMeydan": 11046, "ĠyÃ¼zlerce": 11047, "ette": 11048, "acaat": 11049, "ĠetrafÄ±nda": 11050, "lamayÄ±": 11051, "Ġmakul": 11052, "ĠgeliÅŁtirilen": 11053, "cÄ±larÄ±n": 11054, "Ġfonksiyonu": 11055, "Ġtalebin": 11056, "Den": 11057, "Ã¶rf": 11058, "ĠsÃ¼rdÃ¼rÃ¼lebilir": 11059, "ĠkaldÄ±rÄ±larak": 11060, "Spor": 11061, "ĠÙĬ": 11062, "eveyn": 11063, "ukarÄ±daki": 11064, "Ã¼lÃ¼ÄŁ": 11065, "Ġtemsilcisi": 11066, "ĠfaktÃ¶rler": 11067, "ĠdayanÄ±klÄ±": 11068, "ĠmolekÃ¼l": 11069, "Ġettiklerini": 11070, "ĠTezi": 11071, "ĠprosedÃ¼r": 11072, "ĠBodrum": 11073, "221": 11074, "ĠvekÃ¢let": 11075, "ĠarÄ±yor": 11076, "tiÄŁinde": 11077, "ĠgÃ¶revleri": 11078, "Ġkamuoy": 11079, "TO": 11080, "ĠMir": 11081, "anlarÄ±": 11082, "ĠtebliÄŁnamedeki": 11083, "Ġorganize": 11084, "Ġenerjisi": 11085, "ĠsorunlarÄ±n": 11086, "ĠdeÄŁilse": 11087, "ĠeÄŁlence": 11088, "ĠaÅŁkÄ±n": 11089, "ua": 11090, "Toplam": 11091, "Hak": 11092, "ety": 11093, "ĠyoÄŁ": 11094, "ĠÃ§Ä±karak": 11095, "ĠMimar": 11096, "feri": 11097, "ĠiÅŁverene": 11098, "ĠHemen": 11099, "215": 11100, "viÃ§": 11101, "ĠonanmasÄ±": 11102, "ĠÃ§atÄ±": 11103, "ĠHatay": 11104, "lamÄ±ÅŁtÄ±r": 11105, "ĠuzlaÅŁma": 11106, "ĠaÃ§Ä±ldÄ±": 11107, "Ġevi": 11108, "ĠDaireye": 11109, "Ġtaleplerinin": 11110, "Ġbordro": 11111, "ĠolaylarÄ±": 11112, "ĠNa": 11113, "ĠvatandaÅŁlarÄ±n": 11114, "353": 11115, "ĠiÅŁlemlerini": 11116, "ĠKart": 11117, "Ġantik": 11118, "Ġsporcu": 11119, "Ġbendin": 11120, "tural": 11121, "ĠGEL": 11122, "ĠBEL": 11123, ".Bu": 11124, "times": 11125, "DK": 11126, "ĠMarmara": 11127, "way": 11128, "DEM": 11129, "Ä±lav": 11130, "Ġskor": 11131, "Ġikisi": 11132, "Ġkaybed": 11133, "Ġsesli": 11134, "ality": 11135, "ĠbÃ¼tÃ§e": 11136, "Ġsizleri": 11137, "Ġspektr": 11138, "ĠdavayÄ±": 11139, "ĠeÅŁlik": 11140, "TCK": 11141, "ĠgeÃ§erek": 11142, "ĠtaÅŁÄ±maktadÄ±r": 11143, "ĠgirmiÅŁ": 11144, "ĠadamÄ": 11145, "ĠadamÄ±": 11146, "Hz": 11147, "ĠeÄŁr": 11148, "Ġbildirdi": 11149, "yaman": 11150, "ĠSÄ±nÄ±r": 11151, "ĠDE": 11152, "Bit": 11153, "ĠmekÃ¢n": 11154, "Cl": 11155, "ĠÃ¼lkeye": 11156, "irmi": 11157, "Tel": 11158, "ĠÃ¶len": 11159, "ĠgerekÃ§esinde": 11160, "phi": 11161, "ĠSup": 11162, "Ġkontr": 11163, "Ġmerci": 11164, "Ã¼minyum": 11165, "ĠmÃ¼kellef": 11166, "Ã¼rlÃ¼k": 11167, "ĠhikÃ¢y": 11168, "375": 11169, "ĠAir": 11170, "ĠÃ§izgi": 11171, "Ġstruc": 11172, "Ġmerkezli": 11173, "ĠseÃ§in": 11174, "Ġkalb": 11175, "ĠKomutan": 11176, "ĠÃľzerine": 11177, "ĠaÃ§Ä±ktÄ±r": 11178, "ĠbÃ¼yÃ¼y": 11179, "ĠiÅŁbÃ¶lÃ¼mÃ¼": 11180, "Ġlistesi": 11181, "ĠolanÄ": 11182, "ĠolanÄ±": 11183, "ĠodalarÄ±": 11184, "Ġvergisi": 11185, "ĠYur": 11186, "ĠaÃ§mak": 11187, "ĠBkz": 11188, "ĠYazar": 11189, "laÃ§": 11190, "ĠÄ±rk": 11191, ">a": 11192, "ĠyÃ¶nden": 11193, "ĠSun": 11194, "ĠÄ°r": 11195, "ĠilamÄ±na": 11196, "ĠkarÄ±ÅŁÄ±k": 11197, "Kat": 11198, "tuÄŁu": 11199, "ĠyaratÄ±cÄ±": 11200, "otosiklet": 11201, "adiÅŁ": 11202, "ĠWe": 11203, "iÄŁini": 11204, "ability": 11205, "ÂŃ": 11206, "ĠfotoÄŁraflarÄ±": 11207, "ATO": 11208, "ĠsayÄ±sÄ±nÄ±": 11209, "LEM": 11210, "pÄ±nar": 11211, "222": 11212, "ĠÃ¶zgÃ¼n": 11213, "ĠÃ§ekil": 11214, "Ġsitenin": 11215, "Ġdan": 11216, "ĠBaÅŁsavcÄ±lÄ±ÄŁÄ±": 11217, "tisiz": 11218, "DS": 11219, "ĠKO": 11220, "Su": 11221, "Ġfiziki": 11222, "ASLÄ°YE": 11223, "tÄ±ÄŁÄ±nÄ±z": 11224, "ĠtÃ¼p": 11225, "-E": 11226, "ĠmaÄŁdurun": 11227, "ĠgÃ¶rme": 11228, "ĠFotoÄŁraf": 11229, "211": 11230, "Ġmotiv": 11231, "Ġeks": 11232, "ĠkamulaÅŁtÄ±rÄ±lan": 11233, "ĠmiktarÄ±n": 11234, "-TL": 11235, "/>": 11236, "Ġhediy": 11237, "Ġgeride": 11238, "ĠlÃ¼k": 11239, "endiÄŁi": 11240, "birliÄŁi": 11241, "brek": 11242, "ĠdolarlÄ±k": 11243, "Ã¢z": 11244, "elendirme": 11245, "ĠdeyiÅŁle": 11246, "Ġlev": 11247, "Ġonur": 11248, "Ä±ÄŁÄ±nÄ±n": 11249, "Ġfot": 11250, "nat": 11251, "ĠDel": 11252, "',": 11253, "ĠerkeÄŁin": 11254, "ĠYIL": 11255, "Ġbedava": 11256, "219": 11257, "ĠOrhan": 11258, "sy": 11259, "leyebilirsiniz": 11260, "ĠsatÄ±r": 11261, "GerekÃ§e": 11262, "Ø²": 11263, "ĠkullanÄ±lacak": 11264, "ĠyetiÅŁkin": 11265, "ĠSekret": 11266, "ĠAil": 11267, "Ġtahr": 11268, "Ġilgisi": 11269, "ĠÃ§Ã¶zÃ¼mler": 11270, "ĠharitasÄ±": 11271, "irin": 11272, "ĠmÃ¼kerr": 11273, "ĠBakanlÄ±k": 11274, "rid": 11275, "Ġettiler": 11276, "ĠsÄ±nÄ±flandÄ±r": 11277, "ĠreÃ§": 11278, "ĠÃ§ocuklara": 11279, "Ġsorunsuz": 11280, "ĠÃ¶rgÃ¼": 11281, "ĠhÃ¼kmedilen": 11282, "Ġplanda": 11283, "Ġlise": 11284, "ĠfÄ±krasÄ±na": 11285, "Ã¼ce": 11286, "ĠKore": 11287, "ĠetmiÅŁlerdir": 11288, "Ġithalat": 11289, "endim": 11290, "Ġzorunludur": 11291, "larÄ±mÄ±zla": 11292, "Ġolama": 11293, "Ġsunum": 11294, "ĠfarkÄ±nda": 11295, "/d": 11296, "ĠsÄ±ÄŁ": 11297, "ĠolmanÄ±z": 11298, "akende": 11299, "irt": 11300, "Ġdavadan": 11301, "Ġimzalanan": 11302, "Bay": 11303, "Ġziyade": 11304, "ĠÙĤ": 11305, "ĠyargÄ±lamayÄ±": 11306, "alaxy": 11307, "taÃ§": 11308, "ĠyolculuÄŁ": 11309, "Ġactiv": 11310, "Ġmy": 11311, "Ġlif": 11312, "ĠMÃľ": 11313, "Ġmerkezine": 11314, "efore": 11315, "Â·": 11316, "ĠGÃ¼nlÃ¼k": 11317, "226": 11318, "ĠgeleceÄŁi": 11319, "Deniz": 11320, "Ġrandev": 11321, "ĠunsurlarÄ±": 11322, "ĠTim": 11323, "ĠbeyanlarÄ±": 11324, "Ġkendileri": 11325, "Ġhallerde": 11326, "dayÄ±z": 11327, "imizle": 11328, "amini": 11329, "ita": 11330, "beta": 11331, "lub": 11332, "ĠiÅŁley": 11333, "ĠdeÄŁerlendirilerek": 11334, "Ġseyr": 11335, "ĠyaÅŁamÄ±nÄ±": 11336, "Ġbozukluk": 11337, "Ġmemnuniyet": 11338, "217": 11339, "Ġmedyada": 11340, "ĠdeÄŁerlendirildiÄŁinde": 11341, "bilen": 11342, "\".": 11343, "}Ċ": 11344, "ĠsÃ¶zleÅŁmesinden": 11345, "ĠgÃ¶rdÃ¼": 11346, "Ġlak": 11347, "Ġetmekte": 11348, "Ġlek": 11349, "ĠÅŁeyleri": 11350, "ĠgÃ¶stergesi": 11351, "diÄŁine": 11352, ".Ãľ": 11353, "314": 11354, "Ġgiderleri": 11355, "ĠsÃ¼n": 11356, "ĠbakÄ±mÄ±": 11357, "208": 11358, "ĠsÃ¶n": 11359, "Ġbanyo": 11360, "tÃ¼k": 11361, "ĠiÅŁini": 11362, "aketi": 11363, "ĠkaygÄ±": 11364, "Ġifadesi": 11365, "ebilm": 11366, "Ġfeshin": 11367, "Ġmezunu": 11368, "Ġvicdan": 11369, "Ġalet": 11370, "ĠHalil": 11371, "369": 11372, "ĠyÃ¶netmen": 11373, "Ġyerinden": 11374, "ĠBarÄ±ÅŁ": 11375, "ĠTakÄ±m": 11376, "ĠkarÅŁÄ±laÅŁtÄ±rma": 11377, ">Ãĩizelge": 11378, "ĠhanÄ±m": 11379, "ĠÃ§Ä±karmak": 11380, "ĠUÄŁur": 11381, "ĠteÅŁekkÃ¼rler": 11382, "Sel": 11383, "irim": 11384, "dinde": 11385, "Ġhek": 11386, "yaya": 11387, "Ġcok": 11388, "Ġtarihe": 11389, "Åŀu": 11390, "Ġmost": 11391, "ĠdÃ¼ÅŁÃ¼nÃ¼lmektedir": 11392, "ĠgeÃ§irmek": 11393, "AMA": 11394, "724": 11395, "ĠaÄŁÄ±rlÄ±klÄ±": 11396, "ĠgÃ¶ze": 11397, "UB": 11398, "ĠÃ¶ÄŁrenildi": 11399, "Ġamir": 11400, "Ġded": 11401, "AF": 11402, "ĠYabancÄ±": 11403, "ĠToprak": 11404, "mine": 11405, "Ġonly": 11406, "ĠHÃ¼km": 11407, "Ä±lmasÄ±nda": 11408, "288": 11409, "Ġmuam": 11410, "onlar": 11411, "ĠdÃ¢hil": 11412, "Ä°P": 11413, "ĠNor": 11414, "Ġadresine": 11415, "ĠHakim": 11416, "ĠGÃ¼mÃ¼ÅŁ": 11417, "Ä°ki": 11418, "Ġsars": 11419, "effaf": 11420, "ĠHastalÄ±k": 11421, "ass": 11422, "Ġsir": 11423, "ĠRenk": 11424, "ĠÃ¼yelerinin": 11425, "Ġevet": 11426, "ĠsaptandÄ±ÄŁÄ±": 11427, "ĠadÄ±yla": 11428, "cih": 11429, "action": 11430, "po": 11431, "ilecektir": 11432, "ĠyukarÄ±daki": 11433, "Ġfiyatlar": 11434, "ĠyaratÄ±": 11435, "je": 11436, "Ġibraz": 11437, "Ġyuvar": 11438, "237": 11439, "ĠÅŁÃ¼phel": 11440, "Ġazalma": 11441, "ĠyapmaktadÄ±r": 11442, "ĠhastanÄ±n": 11443, "ĠgÃ¶sterilmesi": 11444, "Ġtutuklu": 11445, "Ġkonuyla": 11446, "ĠkoÅŁullar": 11447, "ĠtÃ¼c": 11448, "ĠunutmayÄ±n": 11449, "ĠAnalizi": 11450, "ĠSonuÃ§larÄ±": 11451, "Ġbizlere": 11452, "ĠdoÄŁrultu": 11453, "ebileceÄŁiniz": 11454, "ĠâĢĿ": 11455, "inizden": 11456, "maÄŁ": 11457, "ibil": 11458, "Ġbuyur": 11459, "Ġkef": 11460, "Ġmecbur": 11461, "ĠDAÄ°R": 11462, "ĠDeney": 11463, "ĠhayatÄ±na": 11464, "evÃ®": 11465, "Ġolurken": 11466, "ĠJandarma": 11467, "ometrik": 11468, "Sen": 11469, "oÃ§": 11470, "ozisyon": 11471, "Ġuyul": 11472, "iyeli": 11473, "Kend": 11474, "ĠTerÃ¶r": 11475, "ojen": 11476, "±y": 11477, "657": 11478, "ongul": 11479, "bat": 11480, "olan": 11481, "ĠdavasÄ±na": 11482, "Cumhuriyet": 11483, "Eski": 11484, "ĠvasÄ±t": 11485, "burg": 11486, ".net": 11487, "Ġbildirildi": 11488, "Ġizni": 11489, "ĠÃ§im": 11490, "Ġotop": 11491, "ĠGiz": 11492, "Ġrahmet": 11493, "ĠpiyasasÄ±nda": 11494, "Ġsep": 11495, "luyor": 11496, "ĠAP": 11497, "ĠKalite": 11498, "rut": 11499, "Ġsitesinin": 11500, "Ġforma": 11501, "ĠTEK": 11502, "ĠkaÄŁÄ±": 11503, "ĠÅŁun": 11504, "ĠistemiÅŁ": 11505, "ĠâĢ¢": 11506, "ĠgÃ¶ÄŁÃ¼s": 11507, "onguldak": 11508, "BazÄ±": 11509, "ĠSÄ±k": 11510, "teb": 11511, "ĠkaldÄ±ÄŁÄ±nÄ±": 11512, "Ġyav": 11513, "ĠTAR": 11514, "izmin": 11515, "enlerin": 11516, "ekte": 11517, "larÄ±mÄ±zda": 11518, "ĠÃľcretsiz": 11519, "ĠiÃ§ermektedir": 11520, "ULU": 11521, "dirim": 11522, "tors": 11523, "ĠgÃ¼nleri": 11524, "ĠÄ°LK": 11525, "ĠÃ¶nemini": 11526, "Ġformu": 11527, "ĠGÃ¼mrÃ¼k": 11528, "rada": 11529, "ĠDalÄ±": 11530, "Ġmahsubu": 11531, "Ġvary": 11532, "ĠÃ¶rgÃ¼tÃ¼ne": 11533, "Ġstandar": 11534, "ĠDurumu": 11535, "Ä±ndÄ±k": 11536, "ĠyazÄ±lan": 11537, "Ġizleme": 11538, "âĢĻli": 11539, "Ġinti": 11540, "ĠTÃľ": 11541, ".f": 11542, "Ã¶ly": 11543, "laÅŁmÄ±ÅŁ": 11544, "ĠaÃ§tÄ±": 11545, "Ġbireyler": 11546, "leyic": 11547, "ĠedilmediÄŁi": 11548, "unt": 11549, "Ġkaplama": 11550, "ĠaÃ§mÄ±ÅŁtÄ±r": 11551, "IÅŀMA": 11552, "ĠTemsil": 11553, "bert": 11554, "256": 11555, "Ġpiyasada": 11556, "ĠGEREKÃĩE": 11557, "hak": 11558, "ĠKÄ±zÄ±l": 11559, "ĠtanÄ±mlanan": 11560, "edd": 11561, "Ġoldum": 11562, "Ġdostu": 11563, "ĠbaÄŁlantÄ±lÄ±": 11564, "209": 11565, "ĠNot": 11566, "ĠsorularÄ±": 11567, ".U": 11568, "Ġmalzemeleri": 11569, ".O": 11570, "Ġfiilen": 11571, "Ġorder": 11572, "ĠbÃ¶lgesel": 11573, "Ġvelayet": 11574, "Ġbelgeleri": 11575, "Ġhazine": 11576, "Ġuse": 11577, "aa": 11578, "ĠFil": 11579, "214": 11580, "Ä°d": 11581, "Ä±y": 11582, "ustr": 11583, "sorp": 11584, "lenmesine": 11585, "tÃ¼ÄŁÃ¼": 11586, "Ġeksiklik": 11587, "ĠsalÄ±ver": 11588, "SÃ¼r": 11589, "ĠgeÃ§mek": 11590, "enize": 11591, "Ġtazminata": 11592, "ĠmÃ¼racaat": 11593, "kusuz": 11594, "ĠManisa": 11595, "311": 11596, "ĠTurkish": 11597, "Øµ": 11598, "Ġsaatte": 11599, "Ġmontaj": 11600, "OsmanlÄ±": 11601, "menize": 11602, "ĠayrÄ±l": 11603, "lusu": 11604, "Ġkonaklama": 11605, "bik": 11606, "duklarÄ±nÄ±": 11607, "omi": 11608, "Ġtotal": 11609, "ĠbileÅŁik": 11610, "Ġtaze": 11611, "ĠsÄ±ÄŁÄ±n": 11612, "Ġzehir": 11613, "ĠcanlandÄ±r": 11614, "pen": 11615, "ĠaÅŁamadan": 11616, "ĠYemek": 11617, "ĠaÃ§Ä±klandÄ±": 11618, "ĠÄ°S": 11619, "Ġfazlaya": 11620, "HAL": 11621, "Ġedecektir": 11622, "larÄ±mÄ±": 11623, "akistan": 11624, "ĠDiz": 11625, "Ġbulur": 11626, "AÅŁaÄŁÄ±": 11627, "Ġkuvvetli": 11628, "Ġcer": 11629, "Ġsorgu": 11630, "Ġsakat": 11631, "ause": 11632, "ĠaÃ§Ä±klamalarda": 11633, "Ġcir": 11634, "ĠihtiyacÄ±nÄ±z": 11635, "ÃľÃ§": 11636, "Ġbizimle": 11637, "Ġchar": 11638, "ĠhazÄ±rlanmÄ±ÅŁ": 11639, "erin": 11640, "ĠdÃ¶nÃ¼k": 11641, "ĠolabileceÄŁini": 11642, "ĠgÃ¶rÃ¼nen": 11643, "theta": 11644, "ĠHasta": 11645, "-g": 11646, "ĠgerÃ§eÄŁi": 11647, "ĠsÃ¼rpriz": 11648, "ĠetkileÅŁim": 11649, "ĠuzaklaÅŁtÄ±r": 11650, "Ġnik": 11651, "yetik": 11652, "ĠMÄ°LL": 11653, "Ä±lÄ±rken": 11654, "elin": 11655, "ĠtutarÄ±": 11656, "Ġmaz": 11657, "Ġgayrimenkul": 11658, "Ġetmeleri": 11659, ".Ãĸ": 11660, "lÄ±nÄ±n": 11661, "ĠÃľstelik": 11662, "ĠkarÅŁÄ±lamak": 11663, "ĠInternational": 11664, "235": 11665, "Ġuyulan": 11666, "tÄ±ÄŁÄ±mÄ±zda": 11667, "Ġfaiziyle": 11668, "ĠTrafik": 11669, "CU": 11670, "ĠhalÄ±": 11671, "ĠyapÄ±lmadÄ±ÄŁÄ±": 11672, "Ġfit": 11673, "Ġnakil": 11674, "Ġsunmak": 11675, "ida": 11676, "ĠIÅŁÄ±k": 11677, "Ġtoplama": 11678, "Ġthem": 11679, "ĠkÃ¶yÃ¼": 11680, "MET": 11681, "ĠseÃ§enekler": 11682, "Ġmobilya": 11683, "KÄ±s": 11684, "ĠHanÄ±m": 11685, "Ġhang": 11686, "Ûģ": 11687, "Ġtahrik": 11688, "Ġmaalesef": 11689, "Ġtey": 11690, "ĠeÅŁliÄŁinde": 11691, "ĠLab": 11692, "ĠbÃ¶lgelerde": 11693, "Ġincelemeye": 11694, "ĠÃ§abuk": 11695, "GenÃ§": 11696, "ĠgeÃ§erlidir": 11697, "Ä±ncaya": 11698, "Ġbelirtilerek": 11699, "Samsun": 11700, "ilmediÄŁi": 11701, "ideki": 11702, "Ġbakter": 11703, "lediÄŁini": 11704, "Ġhesaplan": 11705, "ĠAV": 11706, "ĠTH": 11707, "ĠUÃ§": 11708, "Ġhavale": 11709, "acÄ±n": 11710, "Ġbekleyen": 11711, "ĠAraÅŁtÄ±r": 11712, "ĠFederasyonu": 11713, "Ġreform": 11714, "Ġmuhtemel": 11715, "ĠrÃ¼ya": 11716, "taraf": 11717, "Mak": 11718, "'lÄ±": 11719, "ĠGelir": 11720, "ĠYÃ¶netmelik": 11721, "Elektr": 11722, "lal": 11723, "Ġusing": 11724, "ekom": 11725, "Ġedilmeli": 11726, "mec": 11727, "UY": 11728, "ĠarkasÄ±nda": 11729, "ĠKuruluÅŁ": 11730, "ĠÃ§aÄŁdaÅŁ": 11731, "ĠtaÅŁÄ±nmazlar": 11732, "Ġgazetec": 11733, "ĠPRO": 11734, "Ġmilletvekil": 11735, "Ġsahne": 11736, "doÄŁu": 11737, "Ġboru": 11738, "Ġbant": 11739, "Ġdevleti": 11740, "ĠkalabalÄ±k": 11741, "Ġdenilen": 11742, "yolu": 11743, "Ġocak": 11744, "Ã§ileri": 11745, "âĢĻtan": 11746, "ĠAÅŀ": 11747, "yaÅŁ": 11748, "Ä±lmalÄ±": 11749, "Ġderecesi": 11750, "Ġtakibin": 11751, "lement": 11752, "Ġahl": 11753, "beri": 11754, "edeniyet": 11755, "245": 11756, "Ġkullanmaya": 11757, "ĠgeliÅŁtirilmesi": 11758, "234": 11759, "ĠuygulamasÄ±na": 11760, "ĠalgÄ±lan": 11761, "ĠBakÄ±m": 11762, "ĠaÃ§Ä±sÄ±": 11763, "ĠUlu": 11764, "Ġliman": 11765, "Ġmalzemeler": 11766, "ĠÃ¶ÄŁrencinin": 11767, "ĠÄ°K": 11768, "ĠMag": 11769, "him": 11770, "ĠcevabÄ±": 11771, "ĠpiyasasÄ±": 11772, "}(": 11773, "gÄ±nÄ±": 11774, "GS": 11775, "ENÄ°": 11776, "urr": 11777, "Ãĸzellikle": 11778, "Ø§Ø±": 11779, "viron": 11780, "ĠÃĩizelge": 11781, "Ġvekillerinin": 11782, "Ġetmey": 11783, "ĠDÃ¶nÃ¼ÅŁ": 11784, "umun": 11785, "ĠyazdÄ±ÄŁÄ±": 11786, "Ġkutu": 11787, "ĠhayatÄ±nda": 11788, "Ġkoleksiyon": 11789, "YE": 11790, "Ġduyulan": 11791, "ĠUygun": 11792, "ĠTa": 11793, "ĠtekniÄŁi": 11794, "ĠbaÅŁtan": 11795, "ĠgerÃ§ekleÅŁtirmek": 11796, "ĠÅŁiddetli": 11797, "ĠNATO": 11798, "ĠortalamasÄ±": 11799, "Ġayakta": 11800, "FT": 11801, "put": 11802, "ĠarayÄ±ÅŁ": 11803, "Ġsiteye": 11804, "Ġambalaj": 11805, "Ġeksiklikleri": 11806, "edia": 11807, "Ġbedelin": 11808, "Ġ[...]Ċ": 11809, "Ġklinik": 11810, "ĠuyandÄ±r": 11811, "ĠEmir": 11812, "Ġyerlere": 11813, "amÄ±zda": 11814, "227": 11815, "Ġihtil": 11816, "ectr": 11817, "ĠgeÃ§iyor": 11818, "ĠAnaliz": 11819, "ĠYalnÄ±z": 11820, ".R": 11821, "Ġuzaktan": 11822, "Ġekstra": 11823, "Ġdizisi": 11824, "ĠeÅŁsiz": 11825, "talyan": 11826, "âĪ": 11827, "mathb": 11828, "Ġbununla": 11829, "olitik": 11830, "ĠsaÄŁlanan": 11831, "ĠtoplantÄ±sÄ±nda": 11832, "ĠTabii": 11833, "Ġhastaneye": 11834, "ĠiÅŁletim": 11835, "ĠHotel": 11836, "ĠamaÃ§layan": 11837, "ĠPlatform": 11838, "ĠHakkÄ±": 11839, "uluÄŁu": 11840, "Ġdedik": 11841, "ĠaldÄ±k": 11842, "PG": 11843, "iliÄŁin": 11844, "Ġbran": 11845, "ĠgÃ¶zÃ¶n": 11846, "tag": 11847, "Ġteknolojisi": 11848, "-ticaret": 11849, "ĠyollamasÄ±yla": 11850, "ĠMaÃ§": 11851, "ĠortasÄ±nda": 11852, "ayacak": 11853, "Ġteker": 11854, "ÙĪÙĦ": 11855, "rd": 11856, "ĠyoÄŁunluk": 11857, "ĠAÃĩ": 11858, "-Y": 11859, "ĠÃ¶lÃ§Ã¼t": 11860, "anÄ±zÄ±": 11861, "ĠYÃ¼ksel": 11862, "Ġintikal": 11863, "Ġmevdu": 11864, "malarÄ±nÄ±": 11865, "Ol": 11866, "Ġfestiv": 11867, "savcÄ±lÄ±ÄŁ": 11868, "IC": 11869, "Ġonunla": 11870, "ĠBiy": 11871, "ĠgÃ¶nÃ¼llÃ¼": 11872, "238": 11873, "228": 11874, "keri": 11875, "ĠdeÄŁerlerinin": 11876, "ĠtutulmasÄ±": 11877, "ĠkendiliÄŁinden": 11878, "ĠkanÄ±tlarla": 11879, "ĠdiÄŁeri": 11880, "ĠAksi": 11881, "Sur": 11882, "kes": 11883, "Bursa": 11884, "ĠduyduÄŁu": 11885, "Ġ)</": 11886, "Ġreddet": 11887, "Ġag": 11888, "ĠilamÄ±nÄ±n": 11889, "incisi": 11890, "Ġkonumu": 11891, "'lu": 11892, "ehr": 11893, "ĠpiÅŁmanlÄ±k": 11894, "Ġkendisinden": 11895, "Ø®": 11896, "Ġcal": 11897, "Ġseviyesine": 11898, "ĠalÄ±ndÄ±ÄŁÄ±ndan": 11899, "ĠRef": 11900, "gÄ±lÄ±": 11901, "Ġtaraflara": 11902, "yaz": 11903, "ĠLo": 11904, "ĠMostbet": 11905, "ĠBaÅŁar": 11906, "EVAP": 11907, "tah": 11908, "Ġteklifi": 11909, "tiÄŁiniz": 11910, "Ġva": 11911, "427": 11912, ">n": 11913, "ĠkurulmuÅŁtur": 11914, "ĠuzlaÅŁtÄ±rma": 11915, "ĠOb": 11916, "ĠitirazÄ±nÄ±n": 11917, "amÄ±nÄ±": 11918, "ĠfarklÄ±lÄ±klar": 11919, "sch": 11920, "ĠBulgar": 11921, "Ã¼zelt": 11922, "ĠihtiyaÃ§larÄ±": 11923, "ĠdosyalarÄ±": 11924, "218": 11925, "ological": 11926, "Ġdevre": 11927, "Ġpersoneli": 11928, "Ġistinaden": 11929, "Ġoksijen": 11930, "Ġetiket": 11931, "ĠMÃ¼zik": 11932, "ĠkaranlÄ±k": 11933, "Ġberaatine": 11934, "ĠYÃ¶netmeliÄŁi": 11935, "ĠyapÄ±lacaÄŁÄ±": 11936, "Ġgerilim": 11937, "Ä±ÅŁmasÄ±": 11938, "Ġgelecekte": 11939, "Ġmisiniz": 11940, "Ä°YLE": 11941, "Ġsitesine": 11942, "sigma": 11943, "Ġetkisiyle": 11944, "Ġtemlik": 11945, "gle": 11946, "Ġdevrim": 11947, "ĠhesabÄ±ndan": 11948, "enf": 11949, "dÃ¼stri": 11950, "aciÄŁer": 11951, "ĠgÃ¶Ã§men": 11952, "/son": 11953, "ĠhÃ¼kÃ¼Ã¼m": 11954, "ĠiÃ§ecek": 11955, "Ġdelalet": 11956, "ĠhakkÄ±n": 11957, "Ġseviyesinde": 11958, "ĠLÃ¼t": 11959, "aryo": 11960, "Ġincelemesinde": 11961, "vil": 11962, "ĠyazÄ±lmasÄ±": 11963, "ĠEkonomi": 11964, "bahar": 11965, "ĠKiÅŁisel": 11966, "ĠDiv": 11967, "ersiniz": 11968, "arka": 11969, "ĠMÃ¼zesi": 11970, "ĠkuruluÅŁlarÄ±": 11971, "Kim": 11972, "lation": 11973, "TANBUL": 11974, "ĠBes": 11975, "ĠSÄ±cak": 11976, "iÃ§in": 11977, "Ġhareketle": 11978, "ĠMadd": 11979, "ĠModern": 11980, "ĠyazÄ±lmasÄ±na": 11981, "ĠGÃ¼nÃ¼mÃ¼zde": 11982, "dies": 11983, "bran": 11984, "Ġinsana": 11985, "lasÄ±": 11986, "ĠDiÅŁ": 11987, "Ġaleyhe": 11988, "ĠdÃ¼rÃ¼st": 11989, "ĠkasÄ±": 11990, "ĠÃ¶ÄŁrenim": 11991, "ĠKonu": 11992, "Ġgerektirecek": 11993, "Ġmesafe": 11994, "ĠÅŀer": 11995, "ĠOrtalama": 11996, "mates": 11997, "Af": 11998, "ĠÄ°sk": 11999, "ĠonarÄ±m": 12000, "dÃ¶n": 12001, "ĠToplu": 12002, "ĠsektÃ¶rde": 12003, "Ä±ÅŁÄ±klÄ±k": 12004, "Ġkurban": 12005, "ĠKALDIR": 12006, "Ġlar": 12007, "ĠANA": 12008, "ĠHAK": 12009, "Ġefsan": 12010, "ĠkÃ¼ltÃ¼rÃ¼": 12011, "adoÄŁu": 12012, "ĠtaÅŁÄ±yor": 12013, "ĠfirmalarÄ±": 12014, "Ġcil": 12015, "ĠÃ§eÅŁitleri": 12016, "ĠYolu": 12017, "kaya": 12018, "oliz": 12019, "luÄŁuna": 12020, "Ġnon": 12021, "arÅŁ": 12022, "ves": 12023, "ĠCin": 12024, "ĠAkadem": 12025, "ĠÅŀirketi": 12026, "ilemez": 12027, "kay": 12028, "Ġuygulanma": 12029, "Ã¶zel": 12030, "elikli": 12031, "ĠyapÄ±lÄ±rken": 12032, "adiÅŁah": 12033, "encere": 12034, "ĠDenetim": 12035, "ĠyoÄŁunluÄŁu": 12036, "gut": 12037, "ĠRuh": 12038, "Ġkilometre": 12039, "ÅŁet": 12040, "ĠkavuÅŁtur": 12041, "Ġclass": 12042, "Mod": 12043, "ĠgÃ¼ndÃ¼z": 12044, "ĠkulÃ¼b": 12045, "ĠHÃ¼kÃ¼mlÃ¼lÃ¼k": 12046, "Ġizlemek": 12047, "ĠØŃ": 12048, "Ġur": 12049, "ĠÄ°p": 12050, "ĠsÄ±kÄ±n": 12051, "224": 12052, "\"></": 12053, "Ġbelirtmek": 12054, "ĠtavÄ±r": 12055, "Ġtutun": 12056, "alamak": 12057, "ĠkÄ±smÄ±na": 12058, "ĠBaba": 12059, "ĠuÄŁ": 12060, "ĠkÃ¼f": 12061, "ĠyapÄ±landÄ±r": 12062, "ĠmaÃ§Ä±nda": 12063, "SEK": 12064, "316": 12065, "ĠOnlar": 12066, "ĠDNA": 12067, "Ġbayanlar": 12068, "Ġbilgiyi": 12069, "ĠkesinleÅŁtiÄŁi": 12070, "Ġeseri": 12071, "otek": 12072, "Ĥº": 12073, "330": 12074, "ĠÃ¶lÃ§ekli": 12075, "ineer": 12076, "ĠsabÄ±r": 12077, "Ġmilletvekili": 12078, "Ġbors": 12079, "ĠkoÅŁulu": 12080, "nit": 12081, "ĠkardeÅŁi": 12082, "Ä±zda": 12083, "ĠFon": 12084, "Ġuygundur": 12085, "ĠuzmanÄ±": 12086, "ĠEmin": 12087, "ĠdÃ¼zenlenmesi": 12088, "Ġkonferans": 12089, "ĠnoktalarÄ±": 12090, "Ġhist": 12091, "EÅŁ": 12092, "atal": 12093, "ĠYou": 12094, "'le": 12095, "Ġdeter": 12096, "Ġartar": 12097, "ĠncÄ±": 12098, "ĠDeÄŁerlendir": 12099, "Ġderhal": 12100, "ĠcoÅŁ": 12101, "}^": 12102, "ĠProje": 12103, "265": 12104, "ucusu": 12105, "621": 12106, "Ġincelenmeyen": 12107, "Ġcoun": 12108, "255": 12109, "ĠtanÄ±ma": 12110, "Ġkolon": 12111, "kale": 12112, "engiz": 12113, "ĠTrabzonspor": 12114, "ĠÃĸnemli": 12115, "ĠiddiasÄ±": 12116, "omotiv": 12117, "ĠmaÃ§ta": 12118, "ysa": 12119, "ĠimkansÄ±z": 12120, "ĠSokak": 12121, "233": 12122, "Ä±lmadÄ±ÄŁÄ±": 12123, "Ġdeneyimli": 12124, "gazi": 12125, "ĠOlan": 12126, "ĠÅŁikÃ¢yet": 12127, "Ġyolunu": 12128, "Amer": 12129, "Ġzik": 12130, "ĠsatÄ±cÄ±": 12131, "Ġkanat": 12132, "Kamu": 12133, "Ġbilmek": 12134, "ral": 12135, "ĠkaydÄ±na": 12136, "ĠborÃ§lunun": 12137, "Ticaret": 12138, "ĠBoÄŁaz": 12139, "takÄ±m": 12140, "Ä°nternet": 12141, "ĠgerektiÄŁinde": 12142, "ceki": 12143, "Ġisterim": 12144, "ĠadlandÄ±rÄ±lan": 12145, "Ġkrok": 12146, "ĠdeÄŁerlendirmeler": 12147, "720": 12148, "ĠgÃ¶rÃ¼ldÃ¼": 12149, "ĠFi": 12150, "inceye": 12151, "Ġstrateji": 12152, "eck": 12153, "Ġacc": 12154, "Ġyorgun": 12155, "nel": 12156, "Ġproblemi": 12157, "ĠÃĸyle": 12158, "ĠServis": 12159, "ĠsaÄŁlayacaktÄ±r": 12160, "ĠetkinliÄŁi": 12161, "ĠYavuz": 12162, "Ġcema": 12163, "ĠtaÅŁÄ±r": 12164, "Ġakses": 12165, "crip": 12166, "ĠayÄ±rt": 12167, "ullarÄ±": 12168, "Ġbiliyoruz": 12169, "ĠBÃĸLÃľM": 12170, "Ġehliyet": 12171, "Ä±lmamasÄ±": 12172, "ileceÄŁi": 12173, "hib": 12174, "ano": 12175, "ĠgÃ¶revine": 12176, "ĠPo": 12177, "ĠyarattÄ±ÄŁÄ±": 12178, "ĠZar": 12179, "Ġgas": 12180, "NÄ°": 12181, "Ġcinayet": 12182, "ĠÃ¶nemlisi": 12183, "ĠulaÅŁtÄ±": 12184, "ĠÅŁeyden": 12185, "ĠgidiÅŁ": 12186, "ĠmÃ¼sader": 12187, "ĠÃĸncelikle": 12188, "ĠÃ§alÄ±ÅŁÄ±yoruz": 12189, "ĠÃ¼yeler": 12190, "dÄ±nÄ±z": 12191, "ĠrÃ¼zgar": 12192, "ĠHABER": 12193, "ĠGenellikle": 12194, "ĠkaÃ§Ä±nÄ±lmaz": 12195, "oksit": 12196, "ĠlÃ¼ks": 12197, "609": 12198, "ĠJaponya": 12199, "iyorsunuz": 12200, "itasyon": 12201, "Ġimaj": 12202, "Ġkesintisiz": 12203, "yurt": 12204, "KARA": 12205, "Ġfollow": 12206, "ĠÅŁansÄ±": 12207, "amadÄ±": 12208, "ĠGB": 12209, "ĠMahmut": 12210, "Anayasa": 12211, "ĠDairemize": 12212, "Ġbirbirlerine": 12213, "ĠÅŁehri": 12214, "ĠiddiasÄ±yla": 12215, "ĠÃ§Ã¶zelt": 12216, "ĠteÅŁkilat": 12217, "Ġverilmelidir": 12218, "Ġmahkemeler": 12219, "Ġtakdiri": 12220, "ĠaÃ§Ä±klamaya": 12221, "ILI": 12222, "Ġmoda": 12223, "ĠtanÄ±nan": 12224, ".BaÅŁsavcÄ±lÄ±ÄŁ": 12225, "Ġmasaj": 12226, "Ġgiyim": 12227, "ĠeÅŁyanÄ±n": 12228, "Ġtitr": 12229, "ney": 12230, "Ġyolla": 12231, "EG": 12232, "Ġgazete": 12233, "Ġwho": 12234, "Ġfikri": 12235, "Ġnazaran": 12236, "umuzu": 12237, "Ġund": 12238, "Ġistedikleri": 12239, "Ġtrav": 12240, "Ġbacak": 12241, "Et": 12242, "Ġalgorit": 12243, "Ġtahakk": 12244, "ebir": 12245, "Ġhastane": 12246, "ĠKalkÄ±nma": 12247, "Ġpot": 12248, "GerÃ§ek": 12249, "ĠDÃľÅŀÃľN": 12250, "Ġmekanik": 12251, "Ġgrubun": 12252, "Ġelinden": 12253, "amaÅŁÄ±r": 12254, "Ġbulunarak": 12255, "Ġtarihsel": 12256, "Ġthrough": 12257, "ĠvasÄ±tasÄ±yla": 12258, "ĠDayan": 12259, "ĠsahipliÄŁi": 12260, "UP": 12261, "ĠdokunulmazlÄ±ÄŁÄ±nÄ±": 12262, "ÙĲÙĬ": 12263, "poz": 12264, "ved": 12265, "Erkek": 12266, "ĠÅŁerh": 12267, "ĠRep": 12268, "uÅŁma": 12269, "itab": 12270, "Ġilerlem": 12271,
[...]
